{
  "version": "1.0",
  "truncation": null,
  "padding": null,
  "added_tokens": [
    {
      "id": 0,
      "content": "<pad>",
      "single_word": false,
      "lstrip": false,
      "rstrip": false,
      "normalized": false,
      "special": true
    },
    {
      "id": 1,
      "content": "<unk>",
      "single_word": false,
      "lstrip": false,
      "rstrip": false,
      "normalized": false,
      "special": true
    },
    {
      "id": 2,
      "content": "<s>",
      "single_word": false,
      "lstrip": false,
      "rstrip": false,
      "normalized": false,
      "special": true
    },
    {
      "id": 3,
      "content": "</s>",
      "single_word": false,
      "lstrip": false,
      "rstrip": false,
      "normalized": false,
      "special": true
    },
    {
      "id": 4,
      "content": "<med_qa>",
      "single_word": false,
      "lstrip": false,
      "rstrip": false,
      "normalized": false,
      "special": true
    },
    {
      "id": 5,
      "content": "<|endoftext|>",
      "single_word": false,
      "lstrip": false,
      "rstrip": false,
      "normalized": false,
      "special": true
    }
  ],
  "normalizer": {
    "type": "NFKC"
  },
  "pre_tokenizer": {
    "type": "ByteLevel",
    "add_prefix_space": false,
    "trim_offsets": true,
    "use_regex": true
  },
  "post_processor": null,
  "decoder": {
    "type": "ByteLevel",
    "add_prefix_space": true,
    "trim_offsets": true,
    "use_regex": true
  },
  "model": {
    "type": "BPE",
    "dropout": null,
    "unk_token": "<unk>",
    "continuing_subword_prefix": null,
    "end_of_word_suffix": null,
    "fuse_unk": false,
    "byte_fallback": false,
    "ignore_merges": false,
    "vocab": {
      "<pad>": 0,
      "<unk>": 1,
      "<s>": 2,
      "</s>": 3,
      "<med_qa>": 4,
      "<|endoftext|>": 5,
      "!": 6,
      "\"": 7,
      "#": 8,
      "$": 9,
      "%": 10,
      "&": 11,
      "'": 12,
      "(": 13,
      ")": 14,
      "*": 15,
      "+": 16,
      ",": 17,
      "-": 18,
      ".": 19,
      "/": 20,
      "0": 21,
      "1": 22,
      "2": 23,
      "3": 24,
      "4": 25,
      "5": 26,
      "6": 27,
      "7": 28,
      "8": 29,
      "9": 30,
      ":": 31,
      ";": 32,
      "<": 33,
      "=": 34,
      ">": 35,
      "?": 36,
      "@": 37,
      "A": 38,
      "B": 39,
      "C": 40,
      "D": 41,
      "E": 42,
      "F": 43,
      "G": 44,
      "H": 45,
      "I": 46,
      "J": 47,
      "K": 48,
      "L": 49,
      "M": 50,
      "N": 51,
      "O": 52,
      "P": 53,
      "Q": 54,
      "R": 55,
      "S": 56,
      "T": 57,
      "U": 58,
      "V": 59,
      "W": 60,
      "X": 61,
      "Y": 62,
      "Z": 63,
      "[": 64,
      "\\": 65,
      "]": 66,
      "^": 67,
      "_": 68,
      "`": 69,
      "a": 70,
      "b": 71,
      "c": 72,
      "d": 73,
      "e": 74,
      "f": 75,
      "g": 76,
      "h": 77,
      "i": 78,
      "j": 79,
      "k": 80,
      "l": 81,
      "m": 82,
      "n": 83,
      "o": 84,
      "p": 85,
      "q": 86,
      "r": 87,
      "s": 88,
      "t": 89,
      "u": 90,
      "v": 91,
      "w": 92,
      "x": 93,
      "y": 94,
      "z": 95,
      "{": 96,
      "|": 97,
      "}": 98,
      "~": 99,
      "¡": 100,
      "¢": 101,
      "£": 102,
      "¤": 103,
      "¥": 104,
      "¦": 105,
      "§": 106,
      "¨": 107,
      "©": 108,
      "ª": 109,
      "«": 110,
      "®": 111,
      "¯": 112,
      "°": 113,
      "±": 114,
      "²": 115,
      "³": 116,
      "´": 117,
      "µ": 118,
      "¶": 119,
      "·": 120,
      "¸": 121,
      "¹": 122,
      "º": 123,
      "»": 124,
      "¼": 125,
      "½": 126,
      "¾": 127,
      "¿": 128,
      "Â": 129,
      "Ã": 130,
      "Ä": 131,
      "Å": 132,
      "Æ": 133,
      "É": 134,
      "Ì": 135,
      "Î": 136,
      "Ï": 137,
      "Ð": 138,
      "Ñ": 139,
      "Õ": 140,
      "Ö": 141,
      "×": 142,
      "Ø": 143,
      "Ù": 144,
      "Þ": 145,
      "à": 146,
      "á": 147,
      "â": 148,
      "ï": 149,
      "Ċ": 150,
      "Ġ": 151,
      "Ģ": 152,
      "ģ": 153,
      "Ĥ": 154,
      "ĥ": 155,
      "Ħ": 156,
      "ħ": 157,
      "Ĩ": 158,
      "ĩ": 159,
      "Ī": 160,
      "ī": 161,
      "Ĭ": 162,
      "ĭ": 163,
      "į": 164,
      "İ": 165,
      "ı": 166,
      "Ĳ": 167,
      "ĳ": 168,
      "Ĵ": 169,
      "ĵ": 170,
      "Ķ": 171,
      "ķ": 172,
      "ĸ": 173,
      "Ĺ": 174,
      "ĺ": 175,
      "Ļ": 176,
      "ļ": 177,
      "Ľ": 178,
      "ľ": 179,
      "Ŀ": 180,
      "ŀ": 181,
      "Ł": 182,
      "ł": 183,
      "Ń": 184,
      "Ġt": 185,
      "in": 186,
      "Ġa": 187,
      "on": 188,
      "he": 189,
      "ti": 190,
      "re": 191,
      "is": 192,
      "en": 193,
      "er": 194,
      "Ġo": 195,
      "al": 196,
      "Ġthe": 197,
      "Ġs": 198,
      "Ġc": 199,
      "Ġp": 200,
      "tion": 201,
      "at": 202,
      "ic": 203,
      "es": 204,
      "ed": 205,
      "or": 206,
      "Ġan": 207,
      "Ġof": 208,
      "Ġb": 209,
      "ar": 210,
      "Ġin": 211,
      "Ġm": 212,
      "as": 213,
      "Ġd": 214,
      "Ġw": 215,
      "an": 216,
      "it": 217,
      "Ġf": 218,
      "ro": 219,
      "Ġand": 220,
      "Ġis": 221,
      "ing": 222,
      "ex": 223,
      "Ġ'": 224,
      "le": 225,
      "ul": 226,
      "ent": 227,
      "om": 228,
      "ut": 229,
      "us": 230,
      "ly": 231,
      "Ġh": 232,
      "st": 233,
      "et": 234,
      "lo": 235,
      "Ġth": 236,
      "In": 237,
      "Ġto": 238,
      "il": 239,
      "ation": 240,
      "ext": 241,
      "ac": 242,
      "Ġre": 243,
      "text": 244,
      "Ġn": 245,
      "ve": 246,
      "uc": 247,
      "ec": 248,
      "ol": 249,
      "ical": 250,
      "ith": 251,
      "id": 252,
      "ĠA": 253,
      "Ġwith": 254,
      "':": 255,
      "ur": 256,
      "os": 257,
      "ĠD": 258,
      "un": 259,
      "ĠT": 260,
      "end": 261,
      "Ġl": 262,
      "ia": 263,
      "',": 264,
      "el": 265,
      "Ġhe": 266,
      "em": 267,
      "am": 268,
      "ati": 269,
      "od": 270,
      "Ġfor": 271,
      "edical": 272,
      "ter": 273,
      "ĠH": 274,
      "ail": 275,
      "str": 276,
      "Ġg": 277,
      "ig": 278,
      "uction": 279,
      "im": 280,
      "wer": 281,
      "ra": 282,
      "res": 283,
      "ĠP": 284,
      "ot": 285,
      "um": 286,
      "of": 287,
      "Con": 288,
      "Ġon": 289,
      "ase": 290,
      "Ġthis": 291,
      "put": 292,
      "qu": 293,
      "struction": 294,
      "Ġv": 295,
      "Ġare": 296,
      "Ġ(": 297,
      "ails": 298,
      "ho": 299,
      "Medical": 300,
      "ir": 301,
      "ĠDet": 302,
      "swer": 303,
      "ĠDetails": 304,
      "Instruction": 305,
      "<|": 306,
      "|>": 307,
      "endof": 308,
      "endoftext": 309,
      "Input": 310,
      "Context": 311,
      "Ġtr": 312,
      "ĠW": 313,
      "di": 314,
      "Ġbe": 315,
      "Ġcon": 316,
      "hy": 317,
      "Ġas": 318,
      "ĠC": 319,
      "ep": 320,
      "ĠS": 321,
      "Ġor": 322,
      "oc": 323,
      "tic": 324,
      "op": 325,
      "Ġ1": 326,
      "Ġthat": 327,
      "yp": 328,
      "rom": 329,
      "ĠThe": 330,
      "Ġst": 331,
      "ay": 332,
      "ĠWh": 333,
      "ĠAn": 334,
      "ure": 335,
      "if": 336,
      "Ġpro": 337,
      "ver": 338,
      "Ġdis": 339,
      "atient": 340,
      "ful": 341,
      "ain": 342,
      "Ġsy": 343,
      "ear": 344,
      "ate": 345,
      "Ġqu": 346,
      "ag": 347,
      "Ġr": 348,
      "Ġex": 349,
      "Ġpatient": 350,
      "ich": 351,
      "Ġcan": 352,
      "estion": 353,
      "uth": 354,
      "ion": 355,
      "ell": 356,
      "ated": 357,
      "Ġquestion": 358,
      "ine": 359,
      "low": 360,
      "fully": 361,
      "Ġwh": 362,
      "Ġcom": 363,
      "ĠAnswer": 364,
      "Ġtruth": 365,
      "Ġtruthfully": 366,
      "ad": 367,
      "ment": 368,
      "Ġe": 369,
      "ts": 370,
      "ess": 371,
      "iti": 372,
      "aus": 373,
      "th": 374,
      "her": 375,
      "Ġle": 376,
      "orm": 377,
      "ast": 378,
      "Ġhis": 379,
      "Ġmo": 380,
      "fec": 381,
      "ce": 382,
      "ĠWhat": 383,
      "ary": 384,
      "mp": 385,
      "Ġch": 386,
      "tor": 387,
      "Ġpres": 388,
      "ab": 389,
      "se": 390,
      "Ġal": 391,
      "Ġinc": 392,
      "pl": 393,
      "Ġ2": 394,
      "Ġby": 395,
      "rac": 396,
      "ri": 397,
      "igh": 398,
      "Ġhas": 399,
      "Ġde": 400,
      "ĠM": 401,
      "up": 402,
      "Ġac": 403,
      "Ġres": 404,
      "ug": 405,
      "osis": 406,
      "Ġsho": 407,
      "ud": 408,
      "reat": 409,
      "Ġblo": 410,
      "und": 411,
      "Ġab": 412,
      "ĠE": 413,
      "year": 414,
      "Ġat": 415,
      "ren": 416,
      "ĠB": 417,
      "ous": 418,
      "est": 419,
      "ular": 420,
      "ĠI": 421,
      "gen": 422,
      "ĠĊ": 423,
      "ity": 424,
      "Ġfol": 425,
      "ant": 426,
      "ations": 427,
      "gn": 428,
      "Ġcaus": 429,
      "Ġit": 430,
      "Ġwhich": 431,
      "Ġop": 432,
      "tom": 433,
      "cy": 434,
      "Ġone": 435,
      "art": 436,
      "ke": 437,
      "Ġfollow": 438,
      "Ġblood": 439,
      "Ġper": 440,
      "rap": 441,
      "Ġus": 442,
      "ib": 443,
      "Ġ3": 444,
      "mon": 445,
      "ow": 446,
      "iz": 447,
      "Ġim": 448,
      "amin": 449,
      "Ġmay": 450,
      "hys": 451,
      "Ġse": 452,
      "lease": 453,
      "Ġdise": 454,
      "ight": 455,
      "Ġcell": 456,
      "Ġli": 457,
      "ĠQ": 458,
      "Ġshow": 459,
      "min": 460,
      "Ġdia": 461,
      "ket": 462,
      "Ġoption": 463,
      "old": 464,
      "Ġfollowing": 465,
      "Ġnot": 466,
      "te": 467,
      "ide": 468,
      "mptom": 469,
      "Ġtyp": 470,
      "Ġne": 471,
      "ther": 472,
      "ill": 473,
      "red": 474,
      "00": 475,
      "Ġsp": 476,
      "Ġbrac": 477,
      "Ġanswer": 478,
      "Ġmost": 479,
      "ial": 480,
      "ub": 481,
      "ormal": 482,
      "ĠPlease": 483,
      "Ġbracket": 484,
      "},": 485,
      "{'": 486,
      "per": 487,
      "'},": 488,
      "ĠN": 489,
      "Ġdisease": 490,
      "ardi": 491,
      "ign": 492,
      "Ġlo": 493,
      "ens": 494,
      "one": 495,
      "ĠO": 496,
      "Ġwe": 497,
      "ĠL": 498,
      "nd": 499,
      "dition": 500,
      "ue": 501,
      "ĠHe": 502,
      "Ġag": 503,
      "ort": 504,
      "pp": 505,
      "Ġher": 506,
      "??": 507,
      "lud": 508,
      "reas": 509,
      "ans": 510,
      "Ġha": 511,
      "Ġad": 512,
      "Ġpre": 513,
      "Ġfrom": 514,
      "ch": 515,
      "Ġsymptom": 516,
      "ĠR": 517,
      "inal": 518,
      "ĠIn": 519,
      "Ġinclud": 520,
      "Ġco": 521,
      "itis": 522,
      "rop": 523,
      "ual": 524,
      "Ġman": 525,
      "Ġaf": 526,
      "ult": 527,
      "all": 528,
      "ici": 529,
      "Ġpain": 530,
      "oma": 531,
      "Ġhyp": 532,
      "amination": 533,
      "Ġrec": 534,
      "der": 535,
      "ne": 536,
      "og": 537,
      "tory": 538,
      "Ġint": 539,
      "Ġsymptoms": 540,
      "ndrom": 541,
      "Ġno": 542,
      "ory": 543,
      "tive": 544,
      "ap": 545,
      "ĠF": 546,
      "ugh": 547,
      "âĢ": 548,
      "acter": 549,
      "age": 550,
      "ndrome": 551,
      "log": 552,
      "Ġphys": 553,
      "ĠShe": 554,
      "Ġar": 555,
      "cer": 556,
      "ist": 557,
      "ak": 558,
      "ome": 559,
      "Ġpresent": 560,
      "ress": 561,
      "Ġdiagn": 562,
      "Ġy": 563,
      "Ġcondition": 564,
      "Ġtreat": 565,
      "ys": 566,
      "Ġinf": 567,
      "Ġfe": 568,
      "Ġmed": 569,
      "ence": 570,
      "Ġinfec": 571,
      "Ġhistory": 572,
      "ass": 573,
      "ind": 574,
      "'s": 575,
      "Ġass": 576,
      "Ġapp": 577,
      "and": 578,
      "Ġsyndrome": 579,
      "ip": 580,
      "Ġpatients": 581,
      "Ġresp": 582,
      "Ġhave": 583,
      "ĠG": 584,
      "ric": 585,
      "Ġk": 586,
      "Â°": 587,
      "ted": 588,
      "Ġwas": 589,
      "Ġexamination": 590,
      "Ġcont": 591,
      "ies": 592,
      "Ġdo": 593,
      "hen": 594,
      "Ġshows": 595,
      "oci": 596,
      "Ġother": 597,
      "ang": 598,
      "mo": 599,
      "uch": 600,
      "Ġsc": 601,
      "atory": 602,
      "reased": 603,
      "ness": 604,
      "Ġyo": 605,
      "iff": 606,
      "ific": 607,
      "sure": 608,
      "Ġun": 609,
      "Ġlike": 610,
      "ĠWhich": 611,
      "Ġanti": 612,
      "Ġpressure": 613,
      "Ġsign": 614,
      "ound": 615,
      "lop": 616,
      "able": 617,
      "Ġgen": 618,
      "Ġinfection": 619,
      "ron": 620,
      "cc": 621,
      "rapy": 622,
      "Ġ4": 623,
      "so": 624,
      "Ġsur": 625,
      "Ġcl": 626,
      "Ġpul": 627,
      "ft": 628,
      "Ġcause": 629,
      "Ġcells": 630,
      "ks": 631,
      "Ġen": 632,
      "Ġtype": 633,
      "ose": 634,
      "Ġ5": 635,
      "),": 636,
      "duc": 637,
      "ive": 638,
      "Ġdiff": 639,
      "Ġpo": 640,
      "uld": 641,
      "ery": 642,
      "Ġassoci": 643,
      "ications": 644,
      "ĠTh": 645,
      "Ġinclude": 646,
      "Ġcompl": 647,
      "ven": 648,
      "Ġtreatment": 649,
      "Ġ-": 650,
      "dom": 651,
      "Ġhyper": 652,
      "emia": 653,
      "Ġâ": 654,
      "Ġalso": 655,
      "ause": 656,
      "Ġdep": 657,
      "Ġsuch": 658,
      "Ġocc": 659,
      "ative": 660,
      "ital": 661,
      "Ġlikely": 662,
      "ater": 663,
      "ple": 664,
      "usc": 665,
      "Ġassociated": 666,
      "Ġbec": 667,
      "Ġpl": 668,
      "ays": 669,
      "arc": 670,
      "Ġshe": 671,
      "Ġheart": 672,
      "ĠU": 673,
      "velop": 674,
      "ph": 675,
      "Ġfac": 676,
      "arg": 677,
      "ers": 678,
      "ild": 679,
      "Ġmon": 680,
      "ium": 681,
      "ung": 682,
      "Ġme": 683,
      "ros": 684,
      "Ġinv": 685,
      "Ġcommon": 686,
      "ard": 687,
      "vid": 688,
      "Ġem": 689,
      "ature": 690,
      "vel": 691,
      "Ġmedical": 692,
      "Ġdi": 693,
      "kin": 694,
      "ance": 695,
      "Ġimp": 696,
      "ĠHis": 697,
      "ized": 698,
      "Ġdevelop": 699,
      "Ġche": 700,
      "iss": 701,
      "Ġnormal": 702,
      "Ġused": 703,
      "ism": 704,
      "Ġmm": 705,
      "Ġdr": 706,
      "Ġbut": 707,
      "unc": 708,
      "Ġreg": 709,
      "io": 710,
      "isk": 711,
      "co": 712,
      "Ġover": 713,
      "are": 714,
      "enti": 715,
      "Ġafter": 716,
      "tis": 717,
      "Ġbeen": 718,
      "Ġyear": 719,
      "Ġwhat": 720,
      "order": 721,
      "val": 722,
      "ody": 723,
      "ors": 724,
      "rent": 725,
      "Ġ6": 726,
      "Ġleft": 727,
      "Ġef": 728,
      "ases": 729,
      "out": 730,
      "erm": 731,
      "ates": 732,
      ").": 733,
      "ician": 734,
      "ĠV": 735,
      "vi": 736,
      "Ġdoes": 737,
      "ute": 738,
      "Ġro": 739,
      "Ġly": 740,
      "Ġtrans": 741,
      "mun": 742,
      "Ġund": 743,
      "inding": 744,
      "ĠThis": 745,
      "Ġmet": 746,
      "ct": 747,
      "Ġpar": 748,
      "ures": 749,
      "Ġup": 750,
      "ran": 751,
      "Ġtherapy": 752,
      "Ġunder": 753,
      "Ġ9": 754,
      "Ġrep": 755,
      "ox": 756,
      "Ġcancer": 757,
      "act": 758,
      "oid": 759,
      "Ġmg": 760,
      "Ġwom": 761,
      "Ġinter": 762,
      "Ġrisk": 763,
      "ement": 764,
      "Ġright": 765,
      "ally": 766,
      "lu": 767,
      "ore": 768,
      "Ġgl": 769,
      "ocy": 770,
      "Ġpast": 771,
      "Ġyou": 772,
      "Ġep": 773,
      "ral": 774,
      "aracter": 775,
      "Ġoccur": 776,
      "cess": 777,
      "ved": 778,
      "Ġlymp": 779,
      "tiv": 780,
      "Ġtest": 781,
      "Ġlead": 782,
      "yc": 783,
      "rim": 784,
      "rough": 785,
      "Ġcharacter": 786,
      "Ġra": 787,
      "Ġwee": 788,
      "Ġphysician": 789,
      "ile": 790,
      "Ġdisorder": 791,
      "Ġtem": 792,
      "Ġabdom": 793,
      "unt": 794,
      "Ġpresents": 795,
      "ication": 796,
      "Ġcor": 797,
      "ten": 798,
      "ĠHer": 799,
      "Ġ+": 800,
      "uring": 801,
      "ically": 802,
      "atic": 803,
      "oph": 804,
      "Ġtum": 805,
      "Ġdiagnosis": 806,
      "our": 807,
      "Ġrespir": 808,
      "Ġlevel": 809,
      "dL": 810,
      "Ġarter": 811,
      "ong": 812,
      "we": 813,
      "anc": 814,
      "Ġob": 815,
      "Ġser": 816,
      "Ġsurg": 817,
      "Ġinvol": 818,
      "row": 819,
      "Ġbecause": 820,
      "ily": 821,
      "tein": 822,
      "ves": 823,
      "oth": 824,
      "ond": 825,
      "Ġcol": 826,
      "Ġdef": 827,
      "Ġdec": 828,
      "Ġcons": 829,
      "ening": 830,
      "Ġmal": 831,
      "ating": 832,
      "ities": 833,
      "Ġmore": 834,
      "Ġyears": 835,
      "vent": 836,
      "ack": 837,
      "itive": 838,
      "Ġtemper": 839,
      "Ġeffec": 840,
      "Ġwhen": 841,
      "Ġmonth": 842,
      "unction": 843,
      "Ġsh": 844,
      "Ġext": 845,
      "Ġhad": 846,
      "ost": 847,
      "Ġpat": 848,
      "Ġany": 849,
      "Ġtemperature": 850,
      "las": 851,
      "irus": 852,
      "Ġsyst": 853,
      "normal": 854,
      "Ġfinding": 855,
      "Ġwor": 856,
      "ually": 857,
      "Ġhem": 858,
      "ograp": 859,
      "Ġ7": 860,
      "ons": 861,
      "Ġfactor": 862,
      "ting": 863,
      "als": 864,
      "ck": 865,
      "Ġlung": 866,
      "Ġpulse": 867,
      "ry": 868,
      "Ġrel": 869,
      "Ġend": 870,
      "Ġsub": 871,
      "athy": 872,
      "ĠIt": 873,
      "form": 874,
      "Ġbet": 875,
      "Ġ10": 876,
      "Ġur": 877,
      "Ġtim": 878,
      "own": 879,
      "Ġrate": 880,
      "Ġcardi": 881,
      "nal": 882,
      "ency": 883,
      "sy": 884,
      "Ġsec": 885,
      "rain": 886,
      "bin": 887,
      "Ġbody": 888,
      "Ġspec": 889,
      "ension": 890,
      "hem": 891,
      "ss": 892,
      "pec": 893,
      "Ġmy": 894,
      "olog": 895,
      "ĠOn": 896,
      "rem": 897,
      "Ġj": 898,
      "Ġskin": 899,
      "rib": 900,
      "Ġout": 901,
      "ions": 902,
      "amm": 903,
      "monary": 904,
      "Ġsome": 905,
      "gency": 906,
      "Ġaffec": 907,
      "Ġ8": 908,
      "ĠHg": 909,
      "âĢĻ": 910,
      "urrent": 911,
      "Ġ\"": 912,
      "eph": 913,
      "Ġwoman": 914,
      "uk": 915,
      "Ġheal": 916,
      "Ġphysical": 917,
      "Ġmedications": 918,
      "Ġemer": 919,
      "hes": 920,
      "roid": 921,
      "Ġantib": 922,
      "Ġdiagnos": 923,
      "Ġago": 924,
      "Ġabnormal": 925,
      "lp": 926,
      "Ġthan": 927,
      "les": 928,
      "Ġdue": 929,
      "Ġpos": 930,
      "vere": 931,
      "pos": 932,
      "ler": 933,
      "tr": 934,
      "Ġsystem": 935,
      "Ġlymph": 936,
      "Ġexam": 937,
      "ronic": 938,
      "Ġdrug": 939,
      "Ġtiss": 940,
      "ite": 941,
      "Ġsup": 942,
      "Ġemergency": 943,
      "cop": 944,
      "fer": 945,
      "tain": 946,
      "Ġmusc": 947,
      "asc": 948,
      "Ġuse": 949,
      "Ġfindings": 950,
      "Ġduring": 951,
      "tim": 952,
      "ram": 953,
      "ise": 954,
      "ech": 955,
      "Ġgene": 956,
      "Ġele": 957,
      "Ġthey": 958,
      "Ġchest": 959,
      "rol": 960,
      "Ġfever": 961,
      "Ġform": 962,
      "Ġprim": 963,
      "Ġph": 964,
      "Ġmonths": 965,
      "ior": 966,
      "ĠThere": 967,
      "tes": 968,
      "Ġimmun": 969,
      "Ġthese": 970,
      "Ġhelp": 971,
      "Ġwho": 972,
      "Ġprotein": 973,
      "Ġhypert": 974,
      "yl": 975,
      "Ġins": 976,
      "ible": 977,
      "ari": 978,
      "alc": 979,
      "Ġhigh": 980,
      "Ġchild": 981,
      "tal": 982,
      "Ġcaused": 983,
      "ef": 984,
      "its": 985,
      "Ġhow": 986,
      "hib": 987,
      "ever": 988,
      "other": 989,
      "The": 990,
      "arcin": 991,
      "Ġsevere": 992,
      "Ġsignific": 993,
      "Ġbacter": 994,
      "Ġweeks": 995,
      "Ġshould": 996,
      "Ġdays": 997,
      "Ġdiffe": 998,
      "abor": 999,
      "Ġwell": 1000,
      "Ġsm": 1001,
      "Ġappear": 1002,
      "Ġacid": 1003,
      "ym": 1004,
      "Ġthere": 1005,
      "uro": 1006,
      "usion": 1007,
      "Ġinto": 1008,
      "Ġcases": 1009,
      "ulti": 1010,
      "ĠâĨ": 1011,
      "entric": 1012,
      "Ġcount": 1013,
      "Ġnon": 1014,
      "Ġnec": 1015,
      "Ġdes": 1016,
      "Ġabdominal": 1017,
      "Ġox": 1018,
      "Ġles": 1019,
      "Ġfib": 1020,
      "ection": 1021,
      "ulation": 1022,
      "Ġits": 1023,
      "iciency": 1024,
      "ach": 1025,
      "Ġ12": 1026,
      "Ġmanag": 1027,
      "ween": 1028,
      "Ġincreased": 1029,
      "Ġtime": 1030,
      "Ġtak": 1031,
      "Ġcauses": 1032,
      "ould": 1033,
      "Ġif": 1034,
      "Ġcomp": 1035,
      "Ġlevels": 1036,
      "Ġclin": 1037,
      "de": 1038,
      "Ġsignificant": 1039,
      "Ġreve": 1040,
      "ick": 1041,
      "Ġbetween": 1042,
      "Ġlower": 1043,
      "Ġwithin": 1044,
      "artment": 1045,
      "av": 1046,
      "Ġflu": 1047,
      "ration": 1048,
      "ĠPhys": 1049,
      "olic": 1050,
      "irst": 1051,
      "Ġcharacterized": 1052,
      "Ġdet": 1053,
      "ov": 1054,
      "int": 1055,
      "ĠSt": 1056,
      "ography": 1057,
      "Ġactiv": 1058,
      "ender": 1059,
      "tics": 1060,
      "aboratory": 1061,
      "rease": 1062,
      "Ġtypically": 1063,
      "ition": 1064,
      "ame": 1065,
      "iop": 1066,
      "Ġsurgery": 1067,
      "10": 1068,
      "ĠPhysical": 1069,
      "ults": 1070,
      "âĢĵ": 1071,
      "king": 1072,
      "Ġsever": 1073,
      "tin": 1074,
      "Ġval": 1075,
      "lamm": 1076,
      "Ġtheir": 1077,
      "Ġpal": 1078,
      "Ġcy": 1079,
      "Ġchang": 1080,
      "erv": 1081,
      "Ġdepartment": 1082,
      "rought": 1083,
      "Ġsw": 1084,
      "Ġbrought": 1085,
      "arcinoma": 1086,
      "Ġcare": 1087,
      "Ġmedication": 1088,
      "Ġtissue": 1089,
      "ath": 1090,
      "Ġvis": 1091,
      "Ġtumor": 1092,
      "Ġfail": 1093,
      "Ġage": 1094,
      "Ġbreat": 1095,
      "udi": 1096,
      "Ġsigns": 1097,
      "emb": 1098,
      "arr": 1099,
      "ancy": 1100,
      "Ġresult": 1101,
      "Ġventric": 1102,
      "gan": 1103,
      "Ġincluding": 1104,
      "Ġnod": 1105,
      "ĠEx": 1106,
      "ace": 1107,
      "Ġbil": 1108,
      "Ġprimary": 1109,
      "Ġdys": 1110,
      "Ġacute": 1111,
      "Ġfound": 1112,
      "eding": 1113,
      "ropri": 1114,
      "othe": 1115,
      "ural": 1116,
      "neum": 1117,
      "omy": 1118,
      "ropriate": 1119,
      "ving": 1120,
      "Ġsmo": 1121,
      "Ġfirst": 1122,
      "arge": 1123,
      "com": 1124,
      "gress": 1125,
      "dro": 1126,
      "ied": 1127,
      "Ġcommonly": 1128,
      "Ġhead": 1129,
      "ility": 1130,
      "Ġproduc": 1131,
      "Ġdevelopment": 1132,
      "Ġartery": 1133,
      "ms": 1134,
      "Ġloss": 1135,
      "Ġfactors": 1136,
      "duction": 1137,
      "ree": 1138,
      "Ġimport": 1139,
      "nown": 1140,
      "ice": 1141,
      "Ġloc": 1142,
      "Ġbreath": 1143,
      "ake": 1144,
      "Ġtw": 1145,
      "Ġfunction": 1146,
      "000": 1147,
      "Ġabs": 1148,
      "Ġcomes": 1149,
      "oglo": 1150,
      "ax": 1151,
      "bet": 1152,
      "qui": 1153,
      "ins": 1154,
      "Ġmanagement": 1155,
      "Ġradi": 1156,
      "Ġvirus": 1157,
      "asis": 1158,
      "Ġwhe": 1159,
      "opathy": 1160,
      "az": 1161,
      "divid": 1162,
      "crib": 1163,
      "Ġabout": 1164,
      "Ġrespiratory": 1165,
      "osp": 1166,
      "ascular": 1167,
      "ortic": 1168,
      "ently": 1169,
      "Ġusually": 1170,
      "ocardi": 1171,
      "Ġ20": 1172,
      "ĠCh": 1173,
      "dividual": 1174,
      "ff": 1175,
      "Ġbre": 1176,
      "ob": 1177,
      "ane": 1178,
      "lec": 1179,
      "Ġstudi": 1180,
      "romb": 1181,
      "Ġoften": 1182,
      "Ġliver": 1183,
      "cent": 1184,
      "Ġcomplications": 1185,
      "Ġprevent": 1186,
      "Ġhorm": 1187,
      "ble": 1188,
      "mm": 1189,
      "ark": 1190,
      "pir": 1191,
      "Ġes": 1192,
      "Ġchronic": 1193,
      "Ġhypertension": 1194,
      "Ġfailure": 1195,
      "betes": 1196,
      "Ġpers": 1197,
      "Ġappropriate": 1198,
      "til": 1199,
      "Ġlim": 1200,
      "lying": 1201,
      "Ġreduc": 1202,
      "rial": 1203,
      "Ġhour": 1204,
      "gative": 1205,
      "Ġmass": 1206,
      "Ġgener": 1207,
      "ious": 1208,
      "els": 1209,
      "Ġimportant": 1210,
      "ĠCT": 1211,
      "ateral": 1212,
      "Ġpot": 1213,
      "Ġgrow": 1214,
      "Ġfluid": 1215,
      "ĠHow": 1216,
      "Ġall": 1217,
      "ture": 1218,
      "Ġindividual": 1219,
      "Ġclass": 1220,
      "Ġsecond": 1221,
      "Ġmin": 1222,
      "ĠHyp": 1223,
      "Ġpulmonary": 1224,
      "Ġtes": 1225,
      "erc": 1226,
      "reated": 1227,
      "edi": 1228,
      "umb": 1229,
      "hed": 1230,
      "Ġprov": 1231,
      "NA": 1232,
      "Ġpregn": 1233,
      "eptor": 1234,
      "Ġstudies": 1235,
      "ere": 1236,
      "use": 1237,
      "ultiple": 1238,
      "orn": 1239,
      "Ġboth": 1240,
      "ema": 1241,
      "occ": 1242,
      "Ġmother": 1243,
      "Ġleuk": 1244,
      "Ġang": 1245,
      "Ġinhib": 1246,
      "Ġhep": 1247,
      "Ġsmall": 1248,
      "Ġlow": 1249,
      "ras": 1250,
      "orr": 1251,
      "Ġmuscle": 1252,
      "Ġind": 1253,
      "Ġreveals": 1254,
      "ĠNe": 1255,
      "mit": 1256,
      "Ġref": 1257,
      "oplas": 1258,
      "Ġprovide": 1259,
      "tions": 1260,
      "ĠAl": 1261,
      "Ġey": 1262,
      "Ġcardiac": 1263,
      "Ġav": 1264,
      "iting": 1265,
      "Ġconditions": 1266,
      "ysis": 1267,
      "ma": 1268,
      "Ġbrain": 1269,
      "ole": 1270,
      "atitis": 1271,
      "Ġdiabetes": 1272,
      "Ġlast": 1273,
      "Ġdiffic": 1274,
      "Ġinflamm": 1275,
      "Ġwill": 1276,
      "Ġ15": 1277,
      "ygen": 1278,
      "Ġfam": 1279,
      "Ġinfections": 1280,
      "Ġir": 1281,
      "Ġstr": 1282,
      "ife": 1283,
      "Ġunderlying": 1284,
      "ood": 1285,
      "enc": 1286,
      "Ġknown": 1287,
      "Ġstart": 1288,
      "very": 1289,
      "li": 1290,
      "ste": 1291,
      "Ġreceptor": 1292,
      "ĠÎ": 1293,
      "Ġpneum": 1294,
      "Ġdel": 1295,
      "roph": 1296,
      "Ġabnormalities": 1297,
      "orts": 1298,
      "Ġ0": 1299,
      "valu": 1300,
      "Ġear": 1301,
      "tern": 1302,
      "Ġdeficiency": 1303,
      "ression": 1304,
      "Ġbl": 1305,
      "Ġupper": 1306,
      "Ġinj": 1307,
      "Ġhealth": 1308,
      "Ġble": 1309,
      "Ġ19": 1310,
      "rit": 1311,
      "ge": 1312,
      "coh": 1313,
      "round": 1314,
      "ulin": 1315,
      "Ġ13": 1316,
      "zym": 1317,
      "Ġbo": 1318,
      "fore": 1319,
      "pt": 1320,
      "isod": 1321,
      "Ġmain": 1322,
      "Ġyour": 1323,
      "ucle": 1324,
      "Ġcurrent": 1325,
      "Ġdem": 1326,
      "Ġweight": 1327,
      "Ġseen": 1328,
      "ĠK": 1329,
      "Ġvari": 1330,
      "ĠmE": 1331,
      "Ġblock": 1332,
      "Ġnew": 1333,
      "Ġsin": 1334,
      "Ġprogress": 1335,
      "Ġtwo": 1336,
      "An": 1337,
      "iod": 1338,
      "ĠSy": 1339,
      "Ġrequi": 1340,
      "logical": 1341,
      "ĠmEq": 1342,
      "ray": 1343,
      "Ġcarcinoma": 1344,
      "hea": 1345,
      "ited": 1346,
      "Ġstep": 1347,
      "Ġtender": 1348,
      "Ġhy": 1349,
      "Ġepisod": 1350,
      "ased": 1351,
      "Ġstud": 1352,
      "oglobin": 1353,
      "Ġoxygen": 1354,
      "Ġcalc": 1355,
      "omm": 1356,
      "rect": 1357,
      "Ġdist": 1358,
      "onia": 1359,
      "osph": 1360,
      "Ġpatho": 1361,
      "Ġdifficult": 1362,
      "RI": 1363,
      "Ġspecific": 1364,
      "ĠAd": 1365,
      "Ġconf": 1366,
      "rosis": 1367,
      "aging": 1368,
      "Ġve": 1369,
      "Ġthrough": 1370,
      "Ġevalu": 1371,
      "Ġscan": 1372,
      "Ġpost": 1373,
      "Ġseveral": 1374,
      "Ġpoly": 1375,
      "Ġhours": 1376,
      "Ġshort": 1377,
      "Ġprocess": 1378,
      "oster": 1379,
      "Ġsim": 1380,
      "Ġthy": 1381,
      "Ġthromb": 1382,
      "Ġresults": 1383,
      "Ġul": 1384,
      "ents": 1385,
      "Ġcomplain": 1386,
      "Ġrespirations": 1387,
      "iopsy": 1388,
      "Ġdam": 1389,
      "uct": 1390,
      "Ġonly": 1391,
      "ĠII": 1392,
      "Ġmic": 1393,
      "Ġdifferen": 1394,
      "ential": 1395,
      "ĠCon": 1396,
      "Ġday": 1397,
      "Ġclo": 1398,
      "Ġenzym": 1399,
      "urn": 1400,
      "Ġda": 1401,
      "ended": 1402,
      "Ġed": 1403,
      "ization": 1404,
      "Ġnext": 1405,
      "Ġperform": 1406,
      "Ġcar": 1407,
      "idne": 1408,
      "oscop": 1409,
      "ange": 1410,
      "ĠJ": 1411,
      "Ġmut": 1412,
      "Ġgra": 1413,
      "Ġneed": 1414,
      "ogen": 1415,
      "Ġneuro": 1416,
      "Ġside": 1417,
      "ps": 1418,
      "Ġacc": 1419,
      "Ġrem": 1420,
      "Ġclinical": 1421,
      "Ġ14": 1422,
      "Ġmeas": 1423,
      "Ġdecreased": 1424,
      "Ġexpl": 1425,
      "Ġreports": 1426,
      "Ġlesions": 1427,
      "Ġill": 1428,
      "Ġtub": 1429,
      "reatment": 1430,
      "ucose": 1431,
      "Ġbest": 1432,
      "ately": 1433,
      "Ġchanges": 1434,
      "ety": 1435,
      "vement": 1436,
      "Ġserum": 1437,
      "ew": 1438,
      "Ġmultiple": 1439,
      "Ġbreast": 1440,
      "roup": 1441,
      "Ġtumors": 1442,
      "Ġterm": 1443,
      "echan": 1444,
      "plas": 1445,
      "Ġoccurs": 1446,
      "Ġtests": 1447,
      "Ġgast": 1448,
      "Ġtra": 1449,
      "erum": 1450,
      "uration": 1451,
      "Ġsens": 1452,
      "ont": 1453,
      "ticular": 1454,
      "Ġexper": 1455,
      "vention": 1456,
      "ritis": 1457,
      "Ġrecomm": 1458,
      "Ġfl": 1459,
      "otherapy": 1460,
      "rin": 1461,
      "ality": 1462,
      "ust": 1463,
      "Ġeffects": 1464,
      "aneous": 1465,
      "Ġindividuals": 1466,
      "let": 1467,
      "Ġpalp": 1468,
      "Ġwithout": 1469,
      "ues": 1470,
      "Ġair": 1471,
      "Ġhormone": 1472,
      "eg": 1473,
      "ĠX": 1474,
      "ĠThese": 1475,
      "Ġkidne": 1476,
      "Ġfem": 1477,
      "Ġam": 1478,
      "Ġ100": 1479,
      "Ġstudy": 1480,
      "aly": 1481,
      "urg": 1482,
      "ĠâĨĳ": 1483,
      "Ġthyroid": 1484,
      "Ġwork": 1485,
      "requ": 1486,
      "Ġsyn": 1487,
      "Ġdefec": 1488,
      "Ġbleeding": 1489,
      "Ġextrem": 1490,
      "ĠHowever": 1491,
      "cardi": 1492,
      "ones": 1493,
      "ize": 1494,
      "Ġmechan": 1495,
      "Ġner": 1496,
      "arm": 1497,
      "Ġventricular": 1498,
      "Ġcharacteris": 1499,
      "xim": 1500,
      "Ġery": 1501,
      "iral": 1502,
      "ĠTreatment": 1503,
      "Ġmild": 1504,
      "Ġweak": 1505,
      "Ġalcoh": 1506,
      "ash": 1507,
      "Ġboy": 1508,
      "logy": 1509,
      "ands": 1510,
      "Ġbiopsy": 1511,
      "acc": 1512,
      "atig": 1513,
      "Ġfat": 1514,
      "ann": 1515,
      "Ġinform": 1516,
      "Ġimpro": 1517,
      "ilar": 1518,
      "Ġsep": 1519,
      "Ġantibio": 1520,
      "air": 1521,
      "por": 1522,
      "Ġpregnancy": 1523,
      "rine": 1524,
      "Ġlong": 1525,
      "Le": 1526,
      "Ġpositive": 1527,
      "tial": 1528,
      "erior": 1529,
      "Ġwould": 1530,
      "Ġgenetic": 1531,
      "vated": 1532,
      "Ġbone": 1533,
      "Ġiniti": 1534,
      "Ġred": 1535,
      "Ġgrowth": 1536,
      "Ġroom": 1537,
      "ked": 1538,
      "ect": 1539,
      "odies": 1540,
      "ges": 1541,
      "Ġult": 1542,
      "ology": 1543,
      "ines": 1544,
      "Ġret": 1545,
      "Ġ37": 1546,
      "Ġulcer": 1547,
      "ending": 1548,
      "thy": 1549,
      "Ġwere": 1550,
      "elling": 1551,
      "Ġatt": 1552,
      "Ġintra": 1553,
      "Ġdrugs": 1554,
      "ospital": 1555,
      "Ġfamily": 1556,
      "ule": 1557,
      "ĠCom": 1558,
      "Ġvag": 1559,
      "them": 1560,
      "ull": 1561,
      "Ġurine": 1562,
      "oly": 1563,
      "Ġdescrib": 1564,
      "onary": 1565,
      "Ġabdomen": 1566,
      "Ġstarted": 1567,
      "ĠâĢ": 1568,
      "Ġmod": 1569,
      "Ġwhile": 1570,
      "go": 1571,
      "Ġmuc": 1572,
      "atin": 1573,
      "Ġfatig": 1574,
      "read": 1575,
      "Ġorgan": 1576,
      "Ġ18": 1577,
      "Ġpresence": 1578,
      "Ġben": 1579,
      "Ġbacteria": 1580,
      "itus": 1581,
      "Ġso": 1582,
      "embran": 1583,
      "creased": 1584,
      "enter": 1585,
      "ages": 1586,
      "Ġshown": 1587,
      "Ġnegative": 1588,
      "vers": 1589,
      "Ġdiagnostic": 1590,
      "Ġdamage": 1591,
      "Ġtreated": 1592,
      "itamin": 1593,
      "Ġcontrol": 1594,
      "Ġid": 1595,
      "Ġsays": 1596,
      "Ġback": 1597,
      "Ġrespons": 1598,
      "Ġmean": 1599,
      "fusion": 1600,
      "Ġfrequ": 1601,
      "Ġanal": 1602,
      "ption": 1603,
      "Ġname": 1604,
      "Ġweek": 1605,
      "Ġelect": 1606,
      "ord": 1607,
      "Ġincrease": 1608,
      "ĠAt": 1609,
      "Ġcle": 1610,
      "Ġconcent": 1611,
      "ĠExamination": 1612,
      "Ġexperi": 1613,
      "Ġmen": 1614,
      "Ġultras": 1615,
      "Ġinformation": 1616,
      "ish": 1617,
      "Ġappears": 1618,
      "Ġwhere": 1619,
      "ale": 1620,
      "ules": 1621,
      "Ġrenal": 1622,
      "ipher": 1623,
      "Ġsex": 1624,
      "Ġcall": 1625,
      "Ġpart": 1626,
      "Ġreac": 1627,
      "Ġactivity": 1628,
      "ereb": 1629,
      "Ġvom": 1630,
      "Ġpe": 1631,
      "itor": 1632,
      "ĠAs": 1633,
      "ocyt": 1634,
      "af": 1635,
      "owel": 1636,
      "98": 1637,
      "Ġhum": 1638,
      "Ġbefore": 1639,
      "Ġexc": 1640,
      "Ġcir": 1641,
      "Ġdaily": 1642,
      "Ġsug": 1643,
      "Ġincreas": 1644,
      "Ġcer": 1645,
      "urther": 1646,
      "arrhea": 1647,
      "ĠCan": 1648,
      "Ġexpos": 1649,
      "Ġdiagnosed": 1650,
      "Ġlarge": 1651,
      "plete": 1652,
      "orrh": 1653,
      "Ġmechanism": 1654,
      "Ġhospital": 1655,
      "ople": 1656,
      "Ġmale": 1657,
      "Ġchildren": 1658,
      "Ġheadac": 1659,
      "Ġpneumonia": 1660,
      "eth": 1661,
      "Ġcontrac": 1662,
      "be": 1663,
      "ie": 1664,
      "Ġvital": 1665,
      "Ġprol": 1666,
      "Ġcough": 1667,
      "ĠAb": 1668,
      "Ġvol": 1669,
      "icated": 1670,
      "ced": 1671,
      "ert": 1672,
      "rogen": 1673,
      "Ġtox": 1674,
      "entif": 1675,
      "erg": 1676,
      "Ġmyocardi": 1677,
      "ephal": 1678,
      "Ġvess": 1679,
      "venous": 1680,
      "Ġenzyme": 1681,
      "sis": 1682,
      "ĠMRI": 1683,
      "Ġ30": 1684,
      "ough": 1685,
      "Ġalcohol": 1686,
      "Ġ11": 1687,
      "oint": 1688,
      "Ġlymphoma": 1689,
      "gnosis": 1690,
      "Ġperiod": 1691,
      "ipheral": 1692,
      "Ġflow": 1693,
      "Ġaffected": 1694,
      "ĠAc": 1695,
      "Ġvacc": 1696,
      "Ġinflammation": 1697,
      "):": 1698,
      "IV": 1699,
      "Ġleg": 1700,
      "ulmonary": 1701,
      "hyth": 1702,
      "Ġrare": 1703,
      "Ġx": 1704,
      "onstr": 1705,
      "tomy": 1706,
      "Ġtypes": 1707,
      "Ġappro": 1708,
      "Ġgroup": 1709,
      "Ġgi": 1710,
      "Ġadmin": 1711,
      "ants": 1712,
      "Ġfatigue": 1713,
      "ils": 1714,
      "lor": 1715,
      "imen": 1716,
      "Ġimmune": 1717,
      "Ġdrin": 1718,
      "Ġvalve": 1719,
      "Ġtenderness": 1720,
      "Ġevaluation": 1721,
      "mer": 1722,
      "Ġaortic": 1723,
      "oles": 1724,
      "lin": 1725,
      "Ġinjur": 1726,
      "esis": 1727,
      "ĪĴ": 1728,
      "BC": 1729,
      "Ġurin": 1730,
      "Ġwall": 1731,
      "Ġlife": 1732,
      "Ġchem": 1733,
      "ocyte": 1734,
      "ycin": 1735,
      "onse": 1736,
      "eration": 1737,
      "Ġaden": 1738,
      "Ġnerve": 1739,
      "Ġlaboratory": 1740,
      "Ġdifficulty": 1741,
      "Ġpa": 1742,
      "ĠIf": 1743,
      "Ġdiseases": 1744,
      "ĠOther": 1745,
      "Ġanemia": 1746,
      "den": 1747,
      "Ġcap": 1748,
      "Ġrole": 1749,
      "Ġperson": 1750,
      "Hg": 1751,
      "to": 1752,
      "Ġleukemia": 1753,
      "Ġedema": 1754,
      "ental": 1755,
      "Ġ/": 1756,
      "ister": 1757,
      "Ġ16": 1758,
      "ld": 1759,
      "Ġaut": 1760,
      "Ġrange": 1761,
      "ade": 1762,
      "Ġdiarrhea": 1763,
      "Ġinvolves": 1764,
      "ĠâĪĴ": 1765,
      "Ġoral": 1766,
      "Ġresponse": 1767,
      "ococc": 1768,
      "Ġdoc": 1769,
      "Ġaddition": 1770,
      "ĠmmHg": 1771,
      "Ġpotential": 1772,
      "Ġbelow": 1773,
      "vidence": 1774,
      "hythm": 1775,
      "Ġmembran": 1776,
      "ĠLaboratory": 1777,
      "Ġserious": 1778,
      "Ġswelling": 1779,
      "Ġec": 1780,
      "Ġrash": 1781,
      "Ġseiz": 1782,
      "Ġcoronary": 1783,
      "MI": 1784,
      "Ġnumb": 1785,
      "Ġexp": 1786,
      "ni": 1787,
      "Ġimaging": 1788,
      "Hem": 1789,
      "Ġfrac": 1790,
      "leep": 1791,
      "Ġvomiting": 1792,
      "ardia": 1793,
      "view": 1794,
      "Ġdisorders": 1795,
      "Ġhealthy": 1796,
      "Ġsound": 1797,
      "estinal": 1798,
      "Ġrecommended": 1799,
      "Ġbeing": 1800,
      "line": 1801,
      "Ġap": 1802,
      "Ġden": 1803,
      "ype": 1804,
      "Ġwomen": 1805,
      "Ġperformed": 1806,
      "Ġultrasound": 1807,
      "Ġarea": 1808,
      "Ġepisodes": 1809,
      "Ġcalled": 1810,
      "aj": 1811,
      "uff": 1812,
      "Ġposs": 1813,
      "ĠLe": 1814,
      "Ġkidney": 1815,
      "Ġresponsible": 1816,
      "Ġeye": 1817,
      "utes": 1818,
      "ume": 1819,
      "ĠCould": 1820,
      "Wh": 1821,
      "Ġidentif": 1822,
      "aryn": 1823,
      "12": 1824,
      "ĠPre": 1825,
      "Ġsupp": 1826,
      "och": 1827,
      "Ġbowel": 1828,
      "omas": 1829,
      "rophy": 1830,
      "ĠCardi": 1831,
      "Ġavail": 1832,
      "osa": 1833,
      "Ġremo": 1834,
      "Ġsurgical": 1835,
      "Ġless": 1836,
      "CG": 1837,
      "ecreased": 1838,
      "Ġreport": 1839,
      "Ġeffect": 1840,
      "chem": 1841,
      "ix": 1842,
      "set": 1843,
      "Ġbeh": 1844,
      "ability": 1845,
      "Ġneck": 1846,
      "ian": 1847,
      "Ġprovid": 1848,
      "atelet": 1849,
      "atous": 1850,
      "ends": 1851,
      "ausea": 1852,
      "Ġmalign": 1853,
      "Ġbacterial": 1854,
      "Ġel": 1855,
      "icardi": 1856,
      "Ġven": 1857,
      "Ġ25": 1858,
      "tho": 1859,
      "idered": 1860,
      "ferred": 1861,
      "Ġthen": 1862,
      "genital": 1863,
      "Ġinvolved": 1864,
      "day": 1865,
      "ification": 1866,
      "Ġconsidered": 1867,
      "itary": 1868,
      "ajor": 1869,
      "hel": 1870,
      "Ġ24": 1871,
      "ograph": 1872,
      "Ġlungs": 1873,
      "Ġest": 1874,
      "Ġsus": 1875,
      "osom": 1876,
      "Ġ200": 1877,
      "bl": 1878,
      "vious": 1879,
      "achy": 1880,
      "Ġnucle": 1881,
      "Ġcat": 1882,
      "loc": 1883,
      "Ġtakes": 1884,
      "Ġavailable": 1885,
      "lic": 1886,
      "ĠIV": 1887,
      "Ġdifferent": 1888,
      "rocy": 1889,
      "Ġthro": 1890,
      "estation": 1891,
      "Ġlympho": 1892,
      "Ġdemonstr": 1893,
      "Ġleading": 1894,
      "tra": 1895,
      "Ġsimilar": 1896,
      "onic": 1897,
      "Ġatrial": 1898,
      "Ġweakness": 1899,
      "Ġpeople": 1900,
      "erative": 1901,
      "amine": 1902,
      "oscopy": 1903,
      "Ġillness": 1904,
      "dominal": 1905,
      "asal": 1906,
      "ae": 1907,
      "rel": 1908,
      "Ġobs": 1909,
      "avi": 1910,
      "illary": 1911,
      "CT": 1912,
      "ĠUn": 1913,
      "Ġproced": 1914,
      "uter": 1915,
      "ĠAf": 1916,
      "Ġearly": 1917,
      "rans": 1918,
      "ĠEn": 1919,
      "Ġmetab": 1920,
      "Ġlesion": 1921,
      "medi": 1922,
      "Ġvery": 1923,
      "Ġhemorrh": 1924,
      "Ġdeath": 1925,
      "Ġmeth": 1926,
      "Ġdefin": 1927,
      "Ġtaking": 1928,
      "yst": 1929,
      "ĠâĨĵ": 1930,
      "Ġcertain": 1931,
      "Ġproduction": 1932,
      "Ġ50": 1933,
      "iasis": 1934,
      "ling": 1935,
      "Ġpred": 1936,
      "aturation": 1937,
      "ĠPro": 1938,
      "Ġglucose": 1939,
      "Ġtesting": 1940,
      "larg": 1941,
      "pid": 1942,
      "inine": 1943,
      "Ġ36": 1944,
      "Ġrelated": 1945,
      "Serum": 1946,
      "Ġerythem": 1947,
      "Ġproble": 1948,
      "Ġconcentration": 1949,
      "itation": 1950,
      "ellitus": 1951,
      "nea": 1952,
      "hocardi": 1953,
      "atures": 1954,
      "Ġstates": 1955,
      "Ġantibiotics": 1956,
      "Ġcombin": 1957,
      "illin": 1958,
      "itu": 1959,
      "reg": 1960,
      "Ġparticular": 1961,
      "atal": 1962,
      "Ŀĳ": 1963,
      "ĠNormal": 1964,
      "ĠâĿĳ": 1965,
      "Ġmellitus": 1966,
      "way": 1967,
      "Ġprom": 1968,
      "Ġsecondary": 1969,
      "Ġdoctor": 1970,
      "ified": 1971,
      "ĠNo": 1972,
      "Ġsecre": 1973,
      "Ġinjury": 1974,
      "rec": 1975,
      "hyl": 1976,
      "mong": 1977,
      "ross": 1978,
      "asion": 1979,
      "Ġscre": 1980,
      "Ġclear": 1981,
      "atients": 1982,
      "omet": 1983,
      "elv": 1984,
      "Ġviral": 1985,
      "Ġ40": 1986,
      "Ġoff": 1987,
      "Ġvaginal": 1988,
      "Ġparen": 1989,
      "lex": 1990,
      "Ġextremities": 1991,
      "Ġcm": 1992,
      "Ġemb": 1993,
      "Ġlimits": 1994,
      "Ġcent": 1995,
      "Ġperipheral": 1996,
      "Ġgeneral": 1997,
      "Ġexposure": 1998,
      "ists": 1999,
      "Ġstim": 2000,
      "irm": 2001,
      "thritis": 2002,
      "Ġaffect": 2003,
      "ella": 2004,
      "plant": 2005,
      "Ġusing": 2006,
      "Ġhydro": 2007,
      "reatinine": 2008,
      "ocytes": 2009,
      "Ġcalcium": 2010,
      "terior": 2011,
      "ains": 2012,
      "Ġkg": 2013,
      "like": 2014,
      "arb": 2015,
      "Ġmajor": 2016,
      "hydro": 2017,
      "arrow": 2018,
      "loid": 2019,
      "Ġnausea": 2020,
      "olar": 2021,
      "Ġpoor": 2022,
      "Ġvolume": 2023,
      "ril": 2024,
      "Ġantibodies": 2025,
      "ĠHIV": 2026,
      "Ġcyst": 2027,
      "Ġreduce": 2028,
      "led": 2029,
      "vir": 2030,
      "ĠWhen": 2031,
      "Ġstat": 2032,
      "aden": 2033,
      "tered": 2034,
      "Ġcomplex": 2035,
      "Ġcirc": 2036,
      "bs": 2037,
      "idence": 2038,
      "Ġspread": 2039,
      "Ġfew": 2040,
      "Ġsaturation": 2041,
      "Ġtract": 2042,
      "ophage": 2043,
      "ina": 2044,
      "Ġdisc": 2045,
      "Ġcult": 2046,
      "Ġnotic": 2047,
      "ution": 2048,
      "Ġ17": 2049,
      "Ġcomplete": 2050,
      "urse": 2051,
      "Ġrece": 2052,
      "Ġlight": 2053,
      "ĠIg": 2054,
      "Ġcharacteristic": 2055,
      "tention": 2056,
      "mur": 2057,
      "ymp": 2058,
      "istent": 2059,
      "Ġcolon": 2060,
      "ophageal": 2061,
      "ĠCo": 2062,
      "Ġcyc": 2063,
      "irth": 2064,
      "Ġhist": 2065,
      "plasia": 2066,
      "ool": 2067,
      "Increased": 2068,
      "osin": 2069,
      "ĠDNA": 2070,
      "Ġminutes": 2071,
      "Ġpossible": 2072,
      "vity": 2073,
      "Ġmid": 2074,
      "function": 2075,
      "Ġenlarg": 2076,
      "aterally": 2077,
      "Ġangi": 2078,
      "Ġdifferenti": 2079,
      "Ġvessels": 2080,
      "etal": 2081,
      "Ġmany": 2082,
      "Ġmyocardial": 2083,
      "ene": 2084,
      "Ġsleep": 2085,
      "Ġwors": 2086,
      "Ġdenies": 2087,
      "kal": 2088,
      "ner": 2089,
      "ST": 2090,
      "Ġpanc": 2091,
      "Ġmur": 2092,
      "Ġfurther": 2093,
      "Ġischem": 2094,
      "Ġrecently": 2095,
      "Ġelevated": 2096,
      "arkable": 2097,
      "Al": 2098,
      "olism": 2099,
      "uria": 2100,
      "Ġgo": 2101,
      "arction": 2102,
      "Ġsince": 2103,
      "ĠY": 2104,
      "tig": 2105,
      "iaz": 2106,
      "Ġagain": 2107,
      "Ġfeatures": 2108,
      "oti": 2109,
      "Ġprevious": 2110,
      "arding": 2111,
      "ophil": 2112,
      "onal": 2113,
      "mitted": 2114,
      "ished": 2115,
      "Ġrepl": 2116,
      "Ġgestation": 2117,
      "udden": 2118,
      "rence": 2119,
      "Ġregimen": 2120,
      "Ġaffects": 2121,
      "Ġcurrently": 2122,
      "Ad": 2123,
      "iltr": 2124,
      "Ġrest": 2125,
      "Ġgu": 2126,
      "ĠPer": 2127,
      "Ġsize": 2128,
      "Ġonset": 2129,
      "ission": 2130,
      "Ġmurmur": 2131,
      "less": 2132,
      "Ġhand": 2133,
      "uma": 2134,
      "ds": 2135,
      "Ġamo": 2136,
      "CA": 2137,
      "enic": 2138,
      "Ġthem": 2139,
      "logic": 2140,
      "ave": 2141,
      "ient": 2142,
      "roke": 2143,
      "ides": 2144,
      "ared": 2145,
      "roscop": 2146,
      "Ġradiation": 2147,
      "Ġmutation": 2148,
      "Ġsynt": 2149,
      "Ġov": 2150,
      "emic": 2151,
      "Ġcase": 2152,
      "Ġdose": 2153,
      "Ġmovement": 2154,
      "ances": 2155,
      "Ġshortness": 2156,
      "otic": 2157,
      "Ġhaving": 2158,
      "Ġscler": 2159,
      "Ġfemale": 2160,
      "Ġdefect": 2161,
      "Ġbilateral": 2162,
      "gment": 2163,
      "Ġdisch": 2164,
      "Ġchrom": 2165,
      "renal": 2166,
      "gnitive": 2167,
      "Ġkne": 2168,
      "Ġdeli": 2169,
      "Ġprognosis": 2170,
      "mune": 2171,
      "Ġ90": 2172,
      "Ch": 2173,
      "ĠIm": 2174,
      "Ġbecome": 2175,
      "amp": 2176,
      "Ġsten": 2177,
      "Ġprogressive": 2178,
      "Ġeffective": 2179,
      "cell": 2180,
      "sti": 2181,
      "uss": 2182,
      "Ġactive": 2183,
      "ithel": 2184,
      "Ġcausing": 2185,
      "Ġmicro": 2186,
      "achyc": 2187,
      "Ġoste": 2188,
      "utaneous": 2189,
      "Ġareas": 2190,
      "adder": 2191,
      "Ġperc": 2192,
      "cephal": 2193,
      "ites": 2194,
      "oin": 2195,
      "rotein": 2196,
      "istration": 2197,
      "Ġregular": 2198,
      "Ġcereb": 2199,
      "elf": 2200,
      "Ġgreat": 2201,
      "ĠCD": 2202,
      "ocal": 2203,
      "Ġdeveloping": 2204,
      "eb": 2205,
      "Ġmetast": 2206,
      "Ġgland": 2207,
      "Ġbilaterally": 2208,
      "junc": 2209,
      "erved": 2210,
      "Ġpur": 2211,
      "Ġbased": 2212,
      "ectomy": 2213,
      "itivity": 2214,
      "Ġet": 2215,
      "ened": 2216,
      "ither": 2217,
      "Ġthree": 2218,
      "Ġanalysis": 2219,
      "ision": 2220,
      "lob": 2221,
      "Ġprevention": 2222,
      "Ġsinus": 2223,
      "Ġwater": 2224,
      "Ġhim": 2225,
      "rior": 2226,
      "Ġurinary": 2227,
      "adi": 2228,
      "plement": 2229,
      "oplasm": 2230,
      "Ġproper": 2231,
      "Ġevery": 2232,
      "Ġ38": 2233,
      "Ġsounds": 2234,
      "ru": 2235,
      "aria": 2236,
      "ocytosis": 2237,
      "Ġproblems": 2238,
      "Ġpub": 2239,
      "Ġheadache": 2240,
      "yn": 2241,
      "Ġthose": 2242,
      "Ġsubst": 2243,
      "Ġgastro": 2244,
      "though": 2245,
      "Ġget": 2246,
      "ĠThey": 2247,
      "pected": 2248,
      "Ġaround": 2249,
      "ranul": 2250,
      "ID": 2251,
      "gth": 2252,
      "met": 2253,
      "Ġhig": 2254,
      "ĠPar": 2255,
      "thal": 2256,
      "Ġdiffuse": 2257,
      "achycardia": 2258,
      "enz": 2259,
      "eling": 2260,
      "Ġaspir": 2261,
      "Ġexperienc": 2262,
      "Ġplac": 2263,
      "ring": 2264,
      "Ġplas": 2265,
      "Ġ<": 2266,
      "Ġrap": 2267,
      "oft": 2268,
      "Ġjoint": 2269,
      "Ġstenosis": 2270,
      "Ġthick": 2271,
      "Ġformation": 2272,
      "fe": 2273,
      "Ġpop": 2274,
      "Ġdil": 2275,
      "Ġmolec": 2276,
      "ronch": 2277,
      "Ġsurf": 2278,
      "Ġinfarction": 2279,
      "Ġphosph": 2280,
      "Ġsudden": 2281,
      "Ġanterior": 2282,
      "Ġepid": 2283,
      "Ġabscess": 2284,
      "ximately": 2285,
      "ik": 2286,
      "Ġamong": 2287,
      "Ġmit": 2288,
      "Ġdown": 2289,
      "Ġinvolve": 2290,
      "Ġantibody": 2291,
      "Ġparents": 2292,
      "Ġsal": 2293,
      "oral": 2294,
      "Ġmac": 2295,
      "ulf": 2296,
      "50": 2297,
      "ĠâĢĵ": 2298,
      "Ġderm": 2299,
      "omeg": 2300,
      "Ġreaction": 2301,
      "Ġseizures": 2302,
      "Ġnumber": 2303,
      "SA": 2304,
      "Ġbirth": 2305,
      "lect": 2306,
      "ultation": 2307,
      "cern": 2308,
      "Ġassess": 2309,
      "gl": 2310,
      "oll": 2311,
      "Ġ22": 2312,
      "ervical": 2313,
      "olester": 2314,
      "100": 2315,
      "rept": 2316,
      "arin": 2317,
      "Ġundergo": 2318,
      "Ġ98": 2319,
      "Ġleads": 2320,
      "Ġreceptors": 2321,
      "omegaly": 2322,
      "Ġinsulin": 2323,
      "Ġagainst": 2324,
      "Ġrapid": 2325,
      "fort": 2326,
      "Ġfood": 2327,
      "ulating": 2328,
      "ĠPatients": 2329,
      "azole": 2330,
      "eti": 2331,
      "Ġstress": 2332,
      "roidism": 2333,
      "ria": 2334,
      "ifest": 2335,
      "Ġaction": 2336,
      "ĠECG": 2337,
      "month": 2338,
      "Ġpresentation": 2339,
      "odium": 2340,
      "Ġexcess": 2341,
      "Ġdiet": 2342,
      "Ġlocal": 2343,
      "Ac": 2344,
      "iat": 2345,
      "ired": 2346,
      "oids": 2347,
      "ek": 2348,
      "ty": 2349,
      "Ġthough": 2350,
      "stric": 2351,
      "ĠAnti": 2352,
      "aret": 2353,
      "Ġscreening": 2354,
      "ĠMy": 2355,
      "Ġdischarge": 2356,
      "Ġproteins": 2357,
      "Ġinitial": 2358,
      "CO": 2359,
      "ogram": 2360,
      "ontin": 2361,
      "ermin": 2362,
      "anti": 2363,
      "ially": 2364,
      "Ġdysfunction": 2365,
      "Ġbreathing": 2366,
      "ias": 2367,
      "ĠAr": 2368,
      "igaret": 2369,
      "Ġver": 2370,
      "lerg": 2371,
      "II": 2372,
      "Ġ>": 2373,
      "Ġlin": 2374,
      "Ġprost": 2375,
      "lood": 2376,
      "Ġneph": 2377,
      "Ġeither": 2378,
      "tained": 2379,
      "ĠAcute": 2380,
      "Ġgiven": 2381,
      "Ġast": 2382,
      "Ġmust": 2383,
      "omer": 2384,
      "Ġdiss": 2385,
      "ellular": 2386,
      "Ġinhibit": 2387,
      "Ġchemotherapy": 2388,
      "Ġdelivery": 2389,
      "rill": 2390,
      "Ġcav": 2391,
      "rog": 2392,
      "que": 2393,
      "Ġpathogen": 2394,
      "Ġmeasure": 2395,
      "Ġmethod": 2396,
      "immune": 2397,
      "Ġincidence": 2398,
      "Ġrequire": 2399,
      "hocardiography": 2400,
      "elvic": 2401,
      "Ġtake": 2402,
      "Ġnight": 2403,
      "ĠHem": 2404,
      "Ġexerc": 2405,
      "Ġunrem": 2406,
      "80": 2407,
      "Ġ+/": 2408,
      "Ġpattern": 2409,
      "Ġconcern": 2410,
      "Ġrecent": 2411,
      "Ġincreasing": 2412,
      "irl": 2413,
      "lowing": 2414,
      "Ġrecurrent": 2415,
      "Ġsynthes": 2416,
      "Ġhome": 2417,
      "seud": 2418,
      "Ġcontin": 2419,
      "Ġtissues": 2420,
      "Ġtrauma": 2421,
      "Ġunremarkable": 2422,
      "Ġamin": 2423,
      "atosis": 2424,
      "Ġpericardi": 2425,
      "Ġhemat": 2426,
      "Ġvariety": 2427,
      "Ġ+/-": 2428,
      "wn": 2429,
      "Ġgirl": 2430,
      "ĠST": 2431,
      "aking": 2432,
      "Ġtransplant": 2433,
      "Ġcho": 2434,
      "ator": 2435,
      "Ġgly": 2436,
      "ysm": 2437,
      "Ġclinic": 2438,
      "ĠÎ²": 2439,
      "Ġbehavi": 2440,
      "ective": 2441,
      "verse": 2442,
      "uscultation": 2443,
      "Ġhemoglobin": 2444,
      "lam": 2445,
      "Ġq": 2446,
      "ĠAss": 2447,
      "Ġstool": 2448,
      "ills": 2449,
      "ovascular": 2450,
      "gest": 2451,
      "pnea": 2452,
      "Ġparticularly": 2453,
      "Decreased": 2454,
      "Ġcigaret": 2455,
      "lol": 2456,
      "Ġvia": 2457,
      "Ġ110": 2458,
      "Ġstand": 2459,
      "Ġnotable": 2460,
      "Ġtimes": 2461,
      "Ġelectro": 2462,
      "Ġple": 2463,
      "Ġnit": 2464,
      "Ġplay": 2465,
      "ĠZ": 2466,
      "ensive": 2467,
      "iology": 2468,
      "%.": 2469,
      "Pl": 2470,
      "Ġpack": 2471,
      "Ġstroke": 2472,
      "ipid": 2473,
      "ward": 2474,
      "ophag": 2475,
      "Ġsmoking": 2476,
      "Ġavoid": 2477,
      "iv": 2478,
      "oimmune": 2479,
      "Ġsoft": 2480,
      "Ġevent": 2481,
      "mptoms": 2482,
      "Ġ60": 2483,
      "sych": 2484,
      "Ġtoxic": 2485,
      "Ġmembrane": 2486,
      "Ġreported": 2487,
      "Ġsame": 2488,
      "Ġstain": 2489,
      "ediat": 2490,
      "Ġcombination": 2491,
      "Ġnoticed": 2492,
      "Cl": 2493,
      "mission": 2494,
      "Ġnoted": 2495,
      "ĠAbdominal": 2496,
      "agon": 2497,
      "uble": 2498,
      "Ġhypot": 2499,
      "lastic": 2500,
      "Ġhepat": 2501,
      "Ġure": 2502,
      "heum": 2503,
      "ison": 2504,
      "utroph": 2505,
      "arcoma": 2506,
      "Ġgenerally": 2507,
      "Ġface": 2508,
      "Ġseverity": 2509,
      "Hemoglobin": 2510,
      "Ġuter": 2511,
      "enia": 2512,
      "Ġcongenital": 2513,
      "epti": 2514,
      "ticul": 2515,
      "Ġstage": 2516,
      "sequ": 2517,
      "gestive": 2518,
      "hest": 2519,
      "Ġarthritis": 2520,
      "?\"": 2521,
      "ination": 2522,
      "Ġpass": 2523,
      "hyd": 2524,
      "Ġprot": 2525,
      "Ġeven": 2526,
      "Ġcoll": 2527,
      "Ġnecrosis": 2528,
      "Ġlocated": 2529,
      "sor": 2530,
      "ĠDuring": 2531,
      "ching": 2532,
      "Ġintrac": 2533,
      "Ġcyt": 2534,
      "hal": 2535,
      "ingle": 2536,
      "Ġimprove": 2537,
      "cler": 2538,
      "Ġalong": 2539,
      "Ġexplain": 2540,
      "osome": 2541,
      "ĠRes": 2542,
      "ĠNeuro": 2543,
      "meric": 2544,
      "Ġhigher": 2545,
      "37": 2546,
      "Hyp": 2547,
      "Ġtachycardia": 2548,
      "Ġol": 2549,
      "Ġpap": 2550,
      "Ġfo": 2551,
      "ational": 2552,
      "Ġinfiltr": 2553,
      "Ġregion": 2554,
      "Ġappearance": 2555,
      "Ġvein": 2556,
      "adenopathy": 2557,
      "Gl": 2558,
      "Ġprior": 2559,
      "Ġindic": 2560,
      "Ġprocedure": 2561,
      "Ġhemorrhage": 2562,
      "eria": 2563,
      "Ġwal": 2564,
      "Ġdecrease": 2565,
      "osterone": 2566,
      "Ġremain": 2567,
      "Ġhuman": 2568,
      "reptococc": 2569,
      "Ġoccasion": 2570,
      "ological": 2571,
      "Ġvision": 2572,
      "rant": 2573,
      "Ġorig": 2574,
      "Ġvenous": 2575,
      ".',": 2576,
      "Ġstruct": 2577,
      "Ġvarious": 2578,
      "Ġorganism": 2579,
      ");": 2580,
      "âĢĿ": 2581,
      "Ġrout": 2582,
      "Ġobstruction": 2583,
      "Ġmye": 2584,
      "Ġnodes": 2585,
      "Ġmeasures": 2586,
      "Ġapproximately": 2587,
      "eur": 2588,
      "zing": 2589,
      "ason": 2590,
      "Ġnat": 2591,
      "Ġlater": 2592,
      "Ġintravenous": 2593,
      "Ġobserved": 2594,
      "rast": 2595,
      "aring": 2596,
      "ided": 2597,
      "Ġnecess": 2598,
      "Ġroutine": 2599,
      "cri": 2600,
      "man": 2601,
      "ump": 2602,
      "Ġhepatitis": 2603,
      "tical": 2604,
      "upture": 2605,
      "Ġresol": 2606,
      "ortality": 2607,
      "Ġproduce": 2608,
      "Ġpalpation": 2609,
      "osomal": 2610,
      "hip": 2611,
      "ept": 2612,
      "Ġantigen": 2613,
      "arget": 2614,
      "ventric": 2615,
      "11": 2616,
      "Ġlab": 2617,
      "Ġinflu": 2618,
      "ording": 2619,
      "Ġcervical": 2620,
      "ateg": 2621,
      "Ġcann": 2622,
      "Ġmutations": 2623,
      "Which": 2624,
      "Ġster": 2625,
      "omin": 2626,
      "otor": 2627,
      "ologic": 2628,
      "ĠChronic": 2629,
      "ventricular": 2630,
      "ised": 2631,
      "Ġprop": 2632,
      "Ġevidence": 2633,
      "Ġinflammatory": 2634,
      "Ġculture": 2635,
      "Ġknee": 2636,
      "born": 2637,
      "Ġvascular": 2638,
      "Ġregarding": 2639,
      "ces": 2640,
      "ense": 2641,
      "Ġpediat": 2642,
      "orac": 2643,
      "Ġbeg": 2644,
      "intestinal": 2645,
      "ĠCommon": 2646,
      "Ġlymphocy": 2647,
      "care": 2648,
      "Ġvitamin": 2649,
      "Ġprec": 2650,
      "Ġhelpful": 2651,
      "ĠSyndrome": 2652,
      "Ġrecei": 2653,
      "70": 2654,
      "Ġdeep": 2655,
      "Ġ99": 2656,
      "Ġsystemic": 2657,
      "ĠSymptoms": 2658,
      "St": 2659,
      "Ġsent": 2660,
      "Ġcigarettes": 2661,
      "ĠWhile": 2662,
      "Ġsurface": 2663,
      "rillation": 2664,
      "ying": 2665,
      "Ġmortality": 2666,
      "Ġnerv": 2667,
      "99": 2668,
      "Ġrelease": 2669,
      "Ġwhite": 2670,
      "Ġanx": 2671,
      "rof": 2672,
      "active": 2673,
      "Ġrequired": 2674,
      "Leuk": 2675,
      "Ġcentral": 2676,
      "ĠÂ": 2677,
      "iness": 2678,
      "Ġant": 2679,
      "Ġdone": 2680,
      "ider": 2681,
      "astric": 2682,
      "Ġresist": 2683,
      "Ġmicroscop": 2684,
      "Ġdescribed": 2685,
      "olesterol": 2686,
      "Ġz": 2687,
      "ovirus": 2688,
      "piratory": 2689,
      "Ġauscultation": 2690,
      "acement": 2691,
      "roma": 2692,
      "Ġchann": 2693,
      "Ġcontrast": 2694,
      "Ġ80": 2695,
      "Ġconfirm": 2696,
      "ontaneous": 2697,
      "ok": 2698,
      "rup": 2699,
      "treated": 2700,
      "Ġepithel": 2701,
      "Ġdeg": 2702,
      "Ġarm": 2703,
      "omyopathy": 2704,
      "Ġsensation": 2705,
      "vascular": 2706,
      "Ġte": 2707,
      "ales": 2708,
      "Ġcr": 2709,
      "plate": 2710,
      "ĠFor": 2711,
      "pecially": 2712,
      "Ġdrinks": 2713,
      "enal": 2714,
      "Ġquad": 2715,
      "Ġarteries": 2716,
      "urop": 2717,
      "Ġsol": 2718,
      "ats": 2719,
      "Ġfing": 2720,
      "Ġconjunc": 2721,
      "Ġallerg": 2722,
      "Ġ35": 2723,
      "Ġdeveloped": 2724,
      "Ġbenign": 2725,
      "ĠCardiac": 2726,
      "Ġmalignant": 2727,
      "Ġpancre": 2728,
      "gi": 2729,
      "Ġsingle": 2730,
      "Ġstatus": 2731,
      "pro": 2732,
      "ulated": 2733,
      "rade": 2734,
      "Ġreco": 2735,
      "Ġrelations": 2736,
      "Ġexplan": 2737,
      "regular": 2738,
      "Ġ.": 2739,
      "Ġsl": 2740,
      "ĠDia": 2741,
      "Ġheard": 2742,
      "Ġeach": 2743,
      "Ġsurround": 2744,
      "ĠâĢľ": 2745,
      "sm": 2746,
      "Ġ=": 2747,
      "tious": 2748,
      "Ġdepending": 2749,
      "Ġdirect": 2750,
      "Ġchange": 2751,
      "armac": 2752,
      "wise": 2753,
      "Ġenter": 2754,
      "ĠDise": 2755,
      "elan": 2756,
      "Ġpath": 2757,
      "20": 2758,
      "AL": 2759,
      "Ġset": 2760,
      "yph": 2761,
      "Ġmuscles": 2762,
      "Ġfibrillation": 2763,
      "Ġreveal": 2764,
      "Ġnode": 2765,
      "60": 2766,
      "cl": 2767,
      "hma": 2768,
      "Ġtech": 2769,
      "ĠAmeric": 2770,
      "hood": 2771,
      "Ġja": 2772,
      "lation": 2773,
      "Ġhands": 2774,
      "Ġspinal": 2775,
      "Ġmanage": 2776,
      "Ġsmear": 2777,
      "Ġsynthesis": 2778,
      "Ġrelationship": 2779,
      "jection": 2780,
      "nia": 2781,
      "rate": 2782,
      "ĠMed": 2783,
      "Ġlip": 2784,
      "ercul": 2785,
      "Ġinfected": 2786,
      "Ġorder": 2787,
      "Ġprescrib": 2788,
      "ensity": 2789,
      "Ġuntreated": 2790,
      "kg": 2791,
      "ata": 2792,
      "Ġmark": 2793,
      "acin": 2794,
      "ĠPC": 2795,
      "Ġstom": 2796,
      "Ġpreval": 2797,
      "Ġfeels": 2798,
      "Ġdepression": 2799,
      "Ġcord": 2800,
      "Ġnecessary": 2801,
      "90": 2802,
      "Th": 2803,
      "atho": 2804,
      "Ġadv": 2805,
      "Ġcomplication": 2806,
      "Ġmonitor": 2807,
      "Ġposterior": 2808,
      "Ġincreases": 2809,
      "Ġvaccine": 2810,
      "dle": 2811,
      "Ġsum": 2812,
      "ĠCl": 2813,
      "Ġperit": 2814,
      "ĠRe": 2815,
      "pha": 2816,
      "Ġreflex": 2817,
      "Ġexplanation": 2818,
      "app": 2819,
      "iel": 2820,
      "Ġhair": 2821,
      "Ġcourse": 2822,
      "Ġyoung": 2823,
      "times": 2824,
      "orning": 2825,
      "Ġadministration": 2826,
      "Ġsam": 2827,
      "term": 2828,
      "ĠPulmonary": 2829,
      "Ġdepos": 2830,
      "comfort": 2831,
      "utri": 2832,
      "ĠAV": 2833,
      "opril": 2834,
      "Ġcharacteristics": 2835,
      "Ġmil": 2836,
      "ected": 2837,
      "ĠSome": 2838,
      "Ġfibrosis": 2839,
      "Ġlocation": 2840,
      "Ġreduced": 2841,
      "Ġplasma": 2842,
      "heter": 2843,
      "Ġmening": 2844,
      "ĠDi": 2845,
      "Ġsegment": 2846,
      "Ġworse": 2847,
      "Ġeyes": 2848,
      "Ġdistress": 2849,
      "Ġbenef": 2850,
      "Ġborder": 2851,
      "amic": 2852,
      "Ġadults": 2853,
      "Ġ45": 2854,
      "formin": 2855,
      "arian": 2856,
      "erate": 2857,
      "Ġmes": 2858,
      "Ġfather": 2859,
      "rug": 2860,
      "Ġtarget": 2861,
      "rep": 2862,
      "Ġability": 2863,
      "Ġpainful": 2864,
      "ĠÎ¼": 2865,
      "son": 2866,
      "Ġmake": 2867,
      "Ġtrial": 2868,
      "Ġprof": 2869,
      "mptomatic": 2870,
      "Ġinsuff": 2871,
      "Ġbel": 2872,
      "Ġmorning": 2873,
      "Ġtotal": 2874,
      "Ġorg": 2875,
      "Ġrupture": 2876,
      "Ġinves": 2877,
      "Ġ70": 2878,
      "Ġexperience": 2879,
      "Ġexercise": 2880,
      "SH": 2881,
      "rid": 2882,
      "orb": 2883,
      "Ġwound": 2884,
      "Ġcompared": 2885,
      "Ġespecially": 2886,
      "Ġthrombosis": 2887,
      "version": 2888,
      "vation": 2889,
      "Ġbran": 2890,
      "Ġdig": 2891,
      "ĠHep": 2892,
      "ocarcinoma": 2893,
      "Ġspe": 2894,
      "ystic": 2895,
      "iological": 2896,
      "ographic": 2897,
      "Ġinvestig": 2898,
      "Ġlymphadenopathy": 2899,
      "Ġnewborn": 2900,
      "ĠIII": 2901,
      "ream": 2902,
      "Ġpy": 2903,
      "orph": 2904,
      "omp": 2905,
      "Ġvas": 2906,
      "assium": 2907,
      "ula": 2908,
      "rium": 2909,
      "rength": 2910,
      "Ġinterval": 2911,
      "Ġendomet": 2912,
      "ipp": 2913,
      "the": 2914,
      "Ġfung": 2915,
      "ilis": 2916,
      "raz": 2917,
      "ples": 2918,
      "Ġ21": 2919,
      "ĠAfter": 2920,
      "Ġcannot": 2921,
      "ning": 2922,
      "Ġspl": 2923,
      "Ġadrenal": 2924,
      "Ġlegs": 2925,
      "hn": 2926,
      "Ġtend": 2927,
      "ises": 2928,
      "Ġslow": 2929,
      "Ġaneur": 2930,
      "ifically": 2931,
      "Ġimmedi": 2932,
      "Ġspontaneous": 2933,
      "Ġcould": 2934,
      "Ġsurvi": 2935,
      "oxic": 2936,
      "plastic": 2937,
      "13": 2938,
      "RS": 2939,
      "igment": 2940,
      "Ġdry": 2941,
      "Ġclassified": 2942,
      "Leukocyte": 2943,
      "Ġmotor": 2944,
      "levated": 2945,
      "used": 2946,
      "emplate": 2947,
      "ĠSe": 2948,
      "Ġvisit": 2949,
      "Ġnatural": 2950,
      "\"'},": 2951,
      "AD": 2952,
      "mL": 2953,
      "oration": 2954,
      "Ġmater": 2955,
      "Ġfall": 2956,
      "ulate": 2957,
      "stand": 2958,
      "quam": 2959,
      "moly": 2960,
      "pite": 2961,
      "ways": 2962,
      "Ġax": 2963,
      "titis": 2964,
      "oli": 2965,
      "Ġrati": 2966,
      "Ġable": 2967,
      "Ġincludes": 2968,
      "rimary": 2969,
      "Ġventricle": 2970,
      "comp": 2971,
      "Ġnow": 2972,
      "ĠDe": 2973,
      "Ġotherwise": 2974,
      "Ġthroat": 2975,
      "last": 2976,
      "Ġplease": 2977,
      "Ġbas": 2978,
      "lyc": 2979,
      "uced": 2980,
      "uscular": 2981,
      "Ġglomer": 2982,
      "Ġreturn": 2983,
      "ger": 2984,
      "iety": 2985,
      "Ġphen": 2986,
      "asive": 2987,
      "Ġduct": 2988,
      "ids": 2989,
      "Ġirregular": 2990,
      "Ġcomplaining": 2991,
      "fic": 2992,
      "Ġsite": 2993,
      "Ġanother": 2994,
      "Ġfetal": 2995,
      "ĠOne": 2996,
      "anced": 2997,
      "Ġcardiomyopathy": 2998,
      "MP": 2999,
      "Ġmeans": 3000,
      "iazide": 3001,
      "erculosis": 3002,
      "Ġstomach": 3003,
      "astatin": 3004,
      "ĠUnited": 3005,
      "Ġallow": 3006,
      "reatening": 3007,
      "ĠNon": 3008,
      "Ġhelps": 3009,
      "Ġiron": 3010,
      "Ġepisode": 3011,
      "Ġasthma": 3012,
      "oracic": 3013,
      "get": 3014,
      "rician": 3015,
      "yloid": 3016,
      "Ġer": 3017,
      "Ġ39": 3018,
      "Ġagents": 3019,
      "posed": 3020,
      "Ġprovider": 3021,
      "Ġmouth": 3022,
      "Ġworks": 3023,
      "ĠHyper": 3024,
      "Ġbladder": 3025,
      "Ġworsening": 3026,
      "Ġpercenti": 3027,
      "Per": 3028,
      "Ġsuc": 3029,
      "ĠPO": 3030,
      "ĠLymp": 3031,
      "Ġadd": 3032,
      "Ġfrequently": 3033,
      "blast": 3034,
      "Ġenlarged": 3035,
      "Ġpopulation": 3036,
      "arily": 3037,
      "Ġconn": 3038,
      "Ġplace": 3039,
      "ĠUl": 3040,
      "ycho": 3041,
      "There": 3042,
      "Ġmetabolic": 3043,
      "kles": 3044,
      "spec": 3045,
      "rest": 3046,
      "Ġbronch": 3047,
      "Ġdos": 3048,
      "struc": 3049,
      "ĠSerum": 3050,
      "Ġ28": 3051,
      "Ġbecom": 3052,
      "Ġcompon": 3053,
      "Ġclose": 3054,
      "Ġcatheter": 3055,
      "Ġoffice": 3056,
      "tum": 3057,
      "ĠEvidence": 3058,
      "Ġcontrib": 3059,
      "Ġneeded": 3060,
      "Ġprolong": 3061,
      "ochrom": 3062,
      "Ġquadrant": 3063,
      "Ġthin": 3064,
      "hout": 3065,
      "Ġcontain": 3066,
      "Ġtaken": 3067,
      "ĠStates": 3068,
      "ocarditis": 3069,
      "Ġdemonstrates": 3070,
      "Ġratio": 3071,
      "Ġnasal": 3072,
      "ird": 3073,
      "Ġfollowed": 3074,
      "Ġfeeling": 3075,
      "Ġuntil": 3076,
      "Ġuseful": 3077,
      "otid": 3078,
      "Ġmarrow": 3079,
      "ositive": 3080,
      "Ġline": 3081,
      "ques": 3082,
      "eption": 3083,
      "Ġacet": 3084,
      "Ġresear": 3085,
      "Ġdiagnose": 3086,
      "Ġglands": 3087,
      "till": 3088,
      "Ġmaintain": 3089,
      "ominant": 3090,
      "lished": 3091,
      "Ġke": 3092,
      "Ġlb": 3093,
      "Ġtrig": 3094,
      "ments": 3095,
      "ries": 3096,
      "ĠRec": 3097,
      "Ġencephal": 3098,
      "Ġnervous": 3099,
      "aired": 3100,
      "hin": 3101,
      "Ġing": 3102,
      "oss": 3103,
      "oderm": 3104,
      "rad": 3105,
      "ĠSp": 3106,
      "ughout": 3107,
      "ubin": 3108,
      "Ġunc": 3109,
      "cription": 3110,
      "xy": 3111,
      "Ġent": 3112,
      "epend": 3113,
      "toma": 3114,
      "Ġcontact": 3115,
      "Ġunable": 3116,
      "Ġhowever": 3117,
      "mic": 3118,
      "Ġpsych": 3119,
      "Ġwide": 3120,
      "uspid": 3121,
      "ilial": 3122,
      "ĠDiff": 3123,
      "Ġgon": 3124,
      "imal": 3125,
      "Ġchol": 3126,
      "Ġpharmac": 3127,
      "Ġcomplaints": 3128,
      "Ġresistance": 3129,
      "Ġborn": 3130,
      "Ġinduc": 3131,
      "Ġstop": 3132,
      "ĠEnd": 3133,
      "Ġrepe": 3134,
      "Ġ120": 3135,
      "Ġhealthcare": 3136,
      "Ġautoimmune": 3137,
      "Ġsuspected": 3138,
      "quamous": 3139,
      "phys": 3140,
      "vastatin": 3141,
      "etry": 3142,
      "ellow": 3143,
      "Ġcheck": 3144,
      "pect": 3145,
      "Ġirrit": 3146,
      "Ġdescribes": 3147,
      "Ġprevalence": 3148,
      "Ġpercentile": 3149,
      "40": 3150,
      "Ġswe": 3151,
      "Ġgood": 3152,
      "angi": 3153,
      "Ġtreatments": 3154,
      "Ġcardiovascular": 3155,
      "Ġvisual": 3156,
      "Ġfracture": 3157,
      "flamm": 3158,
      "ori": 3159,
      "Ġdistal": 3160,
      "Ġspace": 3161,
      "phosph": 3162,
      "Ġoverview": 3163,
      "Ġsmoked": 3164,
      "Ġesophag": 3165,
      "Ġinhibitor": 3166,
      "Anti": 3167,
      "Ġheadaches": 3168,
      "Ġadditional": 3169,
      "?\"?": 3170,
      "yphilis": 3171,
      "Ġsumm": 3172,
      "DL": 3173,
      "isc": 3174,
      "Ġtherap": 3175,
      "Ġmelan": 3176,
      "unts": 3177,
      "Ġmetformin": 3178,
      "Ġresulting": 3179,
      "Ġproduced": 3180,
      "Ġneurological": 3181,
      "Ġgastric": 3182,
      "Ġeryth": 3183,
      "lococc": 3184,
      "Ġaspirin": 3185,
      "Ġstructures": 3186,
      "Ġfore": 3187,
      "lock": 3188,
      "Ġgranul": 3189,
      "Ġcholesterol": 3190,
      "trans": 3191,
      "Ġdelay": 3192,
      "Ġthroughout": 3193,
      "Ġinhibitors": 3194,
      "ores": 3195,
      "alf": 3196,
      "Ġpen": 3197,
      "itting": 3198,
      "chlor": 3199,
      "Ġparts": 3200,
      "Ġsexually": 3201,
      "Ġestrogen": 3202,
      "Platelet": 3203,
      "eu": 3204,
      "iary": 3205,
      "ove": 3206,
      "istered": 3207,
      "Ġcry": 3208,
      "ulitis": 3209,
      "Ġshock": 3210,
      "minister": 3211,
      "Ġneur": 3212,
      "Ġobtained": 3213,
      "mitt": 3214,
      "geal": 3215,
      "oscopic": 3216,
      "Ġsexual": 3217,
      "linical": 3218,
      "Ġgastrointestinal": 3219,
      "ĠCO": 3220,
      "Ġprolif": 3221,
      "travenous": 3222,
      "Ġorgans": 3223,
      "Pro": 3224,
      "Ġbal": 3225,
      "lets": 3226,
      "openia": 3227,
      "Ġneoplas": 3228,
      "chiz": 3229,
      "Ġabsent": 3230,
      "ĠÎ±": 3231,
      "dose": 3232,
      "onin": 3233,
      "ret": 3234,
      "aries": 3235,
      "Ġmig": 3236,
      "Ġ32": 3237,
      "Ġimage": 3238,
      "Ġarr": 3239,
      "Ġbeta": 3240,
      "Ġischemia": 3241,
      "Ġmitral": 3242,
      "chy": 3243,
      "dia": 3244,
      "sided": 3245,
      "Ġburn": 3246,
      "irubin": 3247,
      "ĠCurrent": 3248,
      "Ġsupplement": 3249,
      "Ġabsence": 3250,
      "Ġaccum": 3251,
      "Ġantibiotic": 3252,
      "viron": 3253,
      "Ġchromosome": 3254,
      "Ġsurvival": 3255,
      "cious": 3256,
      "Ġmuch": 3257,
      "undice": 3258,
      "Ġfacial": 3259,
      "Ġeffusion": 3260,
      "rophic": 3261,
      "Glucose": 3262,
      "Ġpediatrician": 3263,
      "ĠDisease": 3264,
      "par": 3265,
      "Ġaort": 3266,
      "Ġdrain": 3267,
      "Ġfour": 3268,
      "Ġhost": 3269,
      "Ġexact": 3270,
      "Ġ23": 3271,
      "ape": 3272,
      "ĠGu": 3273,
      "Ġcarb": 3274,
      "ĠâĢ¢": 3275,
      "ituitary": 3276,
      "As": 3277,
      "Ġstill": 3278,
      "Ġnear": 3279,
      "Ġdiure": 3280,
      "Ġsometimes": 3281,
      "Ġterms": 3282,
      "uod": 3283,
      "ident": 3284,
      "Ġvary": 3285,
      "ĠSc": 3286,
      "ĠOver": 3287,
      "aps": 3288,
      "Ġinfant": 3289,
      "cogen": 3290,
      "Ġpreviously": 3291,
      "Ġantagon": 3292,
      "arf": 3293,
      "ĠMal": 3294,
      "ĠMet": 3295,
      "ĠMost": 3296,
      "Ġsee": 3297,
      "Ġgrad": 3298,
      "Ġechocardiography": 3299,
      "Ġconjunctiv": 3300,
      "rist": 3301,
      "tosis": 3302,
      "usions": 3303,
      "idase": 3304,
      "Ġhemoly": 3305,
      "ote": 3306,
      "icient": 3307,
      "tility": 3308,
      "Ġstandard": 3309,
      "Ġinfluenz": 3310,
      "Ġtechni": 3311,
      ")',": 3312,
      "15": 3313,
      "Ex": 3314,
      "ernal": 3315,
      "Ġsoc": 3316,
      "Ġwife": 3317,
      "uls": 3318,
      "omatous": 3319,
      "Ġstrength": 3320,
      "Ġintervention": 3321,
      "ilep": 3322,
      "Ġ75": 3323,
      "aryngeal": 3324,
      "orp": 3325,
      "rob": 3326,
      "ush": 3327,
      "Ġgang": 3328,
      "operative": 3329,
      "Ġplatelet": 3330,
      "ranial": 3331,
      "Ġsystolic": 3332,
      "Ġswal": 3333,
      "Ġdefects": 3334,
      "Ġmeaning": 3335,
      "Ġsuggest": 3336,
      "Ġadministered": 3337,
      "AS": 3338,
      "ean": 3339,
      "Ġsu": 3340,
      "Ġmental": 3341,
      "Ġretin": 3342,
      "ypical": 3343,
      "Ġleast": 3344,
      "fective": 3345,
      "Ġmanifest": 3346,
      "Ġintest": 3347,
      "Ġobes": 3348,
      "Ġbehavior": 3349,
      "PV": 3350,
      "itic": 3351,
      "ker": 3352,
      "isin": 3353,
      "agulation": 3354,
      "Ġneutroph": 3355,
      "ĠIncreased": 3356,
      "Ġforms": 3357,
      "Ġpregnant": 3358,
      "Ġtube": 3359,
      "Ġmenstr": 3360,
      "oints": 3361,
      "reptococcus": 3362,
      "Ġanxiety": 3363,
      "tures": 3364,
      "Ġsodium": 3365,
      "omic": 3366,
      "acks": 3367,
      "osus": 3368,
      "ocrine": 3369,
      "Ġrhythm": 3370,
      "ensitivity": 3371,
      "Ġbreak": 3372,
      "Ġfoot": 3373,
      "aves": 3374,
      "inated": 3375,
      "ings": 3376,
      "ĠBy": 3377,
      "ĠRNA": 3378,
      "ximal": 3379,
      "Ġmucosa": 3380,
      "tional": 3381,
      "Ġtop": 3382,
      "airment": 3383,
      "Ġfrequent": 3384,
      "Ġexcessive": 3385,
      "Ġthought": 3386,
      "hetic": 3387,
      "eral": 3388,
      "Ġbinding": 3389,
      "romycin": 3390,
      "Ġrheum": 3391,
      "ĠBMI": 3392,
      "Ġgenes": 3393,
      "Ġ95": 3394,
      "Ġangina": 3395,
      "Level": 3396,
      "Ġsupport": 3397,
      "Ne": 3398,
      "Ġsun": 3399,
      "Ġcrit": 3400,
      "orax": 3401,
      "Ġbro": 3402,
      "Ġreduction": 3403,
      "Ġregurg": 3404,
      "week": 3405,
      "Ġposition": 3406,
      "Ġulcers": 3407,
      "Ġgreater": 3408,
      "Ġprescribed": 3409,
      "auc": 3410,
      "inase": 3411,
      "Ġdid": 3412,
      "Ġwave": 3413,
      "Ġbegan": 3414,
      "Ġeating": 3415,
      "threatening": 3416,
      "ĠIs": 3417,
      "Ġfollows": 3418,
      "izing": 3419,
      "aphy": 3420,
      "ixed": 3421,
      "related": 3422,
      "Ġdefined": 3423,
      "Ġcavity": 3424,
      "mittent": 3425,
      "Ab": 3426,
      "Creatinine": 3427,
      "ymptomatic": 3428,
      "ĠSurg": 3429,
      "Ġstate": 3430,
      "Ġeas": 3431,
      "ferase": 3432,
      "ĠCognitive": 3433,
      "Ġcreatinine": 3434,
      "ars": 3435,
      "Ġmade": 3436,
      "itations": 3437,
      "Ġhip": 3438,
      "los": 3439,
      "ters": 3440,
      "Ġhernia": 3441,
      "athyroid": 3442,
      "Ġphase": 3443,
      "Ġclassification": 3444,
      "Ġcycle": 3445,
      "Ġpathway": 3446,
      "ou": 3447,
      "icillin": 3448,
      "activ": 3449,
      "Ġheight": 3450,
      "raw": 3451,
      "ĠSpec": 3452,
      "Ġintestinal": 3453,
      "ĠVital": 3454,
      "Ġdifferential": 3455,
      "Ġestab": 3456,
      "fib": 3457,
      "wo": 3458,
      "Ġmarg": 3459,
      "omycin": 3460,
      "ĠMay": 3461,
      "Ġcolitis": 3462,
      "ylase": 3463,
      "Ġsuggestive": 3464,
      "rh": 3465,
      "idine": 3466,
      "hool": 3467,
      "Ġagent": 3468,
      "ociated": 3469,
      "ermat": 3470,
      "Ġinvolvement": 3471,
      "gressive": 3472,
      "Ġidentify": 3473,
      "ches": 3474,
      "hyroidism": 3475,
      "ĠUp": 3476,
      "othel": 3477,
      "Ġsmoke": 3478,
      "oglob": 3479,
      "PA": 3480,
      "Ġreview": 3481,
      "Ġalthough": 3482,
      "oxin": 3483,
      "osinophil": 3484,
      "Ġamount": 3485,
      "+:": 3486,
      "19": 3487,
      "uous": 3488,
      "actor": 3489,
      "Ġreph": 3490,
      "otal": 3491,
      "renatal": 3492,
      "generation": 3493,
      "Ġfluids": 3494,
      "band": 3495,
      "port": 3496,
      "Ġold": 3497,
      "Ġdest": 3498,
      "Ġway": 3499,
      "Ġfiel": 3500,
      "otrop": 3501,
      "plicated": 3502,
      "entia": 3503,
      "Ġdetect": 3504,
      "Ġischemic": 3505,
      "Ġsurrounding": 3506,
      "Re": 3507,
      "Ġasymptomatic": 3508,
      "Ġeti": 3509,
      "ĠMic": 3510,
      "Ġoptions": 3511,
      "Ġcost": 3512,
      "Ġfeet": 3513,
      "Ġtransmitted": 3514,
      "Ġseptal": 3515,
      "Ġmovements": 3516,
      "Ġaneurysm": 3517,
      "mia": 3518,
      "tender": 3519,
      "atase": 3520,
      "Ġbab": 3521,
      "osal": 3522,
      "ĠOr": 3523,
      "Ġenviron": 3524,
      "Ġ65": 3525,
      "Ġparas": 3526,
      "ĠAfric": 3527,
      "Ġdifferentiated": 3528,
      "ollen": 3529,
      "Acute": 3530,
      "onitis": 3531,
      "Ġana": 3532,
      "ĠPoly": 3533,
      "Ġsequ": 3534,
      "ĠNl": 3535,
      "Ġkidneys": 3536,
      "pation": 3537,
      "atoid": 3538,
      "Ġbile": 3539,
      "Ġreason": 3540,
      "ĠFinding": 3541,
      "Ġfeature": 3542,
      "ermine": 3543,
      "Ġcerebral": 3544,
      "enomegaly": 3545,
      "icine": 3546,
      "agen": 3547,
      "Ġuses": 3548,
      "Ġadmitted": 3549,
      "Ġrepair": 3550,
      "Ġrelative": 3551,
      "Ġlimited": 3552,
      "Ġpleural": 3553,
      "Ġorigin": 3554,
      "Ġaorta": 3555,
      "aphylococc": 3556,
      "yle": 3557,
      "Ġess": 3558,
      "alysis": 3559,
      "Ġpelvic": 3560,
      "eli": 3561,
      "amide": 3562,
      "Ġdehydro": 3563,
      "akes": 3564,
      "Ġarterial": 3565,
      "Ġtuberculosis": 3566,
      "Ġovarian": 3567,
      "Ġdissection": 3568,
      "Ġinsufficiency": 3569,
      "pes": 3570,
      "Ġcop": 3571,
      "icuspid": 3572,
      "ĠSh": 3573,
      "genase": 3574,
      "Ġ55": 3575,
      "axis": 3576,
      "Ġhepatic": 3577,
      "Ġreplacement": 3578,
      "AB": 3579,
      "icular": 3580,
      "Ġduration": 3581,
      "Ġcontext": 3582,
      "ĠBlood": 3583,
      "Ġschool": 3584,
      "Ġdepress": 3585,
      "Ġupon": 3586,
      "Ġrequires": 3587,
      "Ġamyloid": 3588,
      "Ġpurp": 3589,
      "clerosis": 3590,
      "Ġbecomes": 3591,
      "isinopril": 3592,
      "ezing": 3593,
      "side": 3594,
      "icit": 3595,
      "Ġdip": 3596,
      "imer": 3597,
      "ĠChest": 3598,
      "Ġequ": 3599,
      "Ġ26": 3600,
      "Ġtypical": 3601,
      "Ġpersistent": 3602,
      "Ġpotassium": 3603,
      "Ġindicated": 3604,
      "TP": 3605,
      "con": 3606,
      "Ġtrem": 3607,
      "onate": 3608,
      "enign": 3609,
      "Ġantic": 3610,
      "Ġhus": 3611,
      "Ġlack": 3612,
      "Ġlateral": 3613,
      "otomy": 3614,
      "ĠSub": 3615,
      "ĠGI": 3616,
      "Ġassociation": 3617,
      "azine": 3618,
      "Ġ130": 3619,
      "ĠPreferred": 3620,
      "Ġsentence": 3621,
      "ĠAmerican": 3622,
      "rhosis": 3623,
      "24": 3624,
      "30": 3625,
      "cher": 3626,
      "erous": 3627,
      "Ġnose": 3628,
      "Ġseem": 3629,
      "teb": 3630,
      "Ġspot": 3631,
      "Ġdetermine": 3632,
      "Ġhormones": 3633,
      "Ġcomplains": 3634,
      "Ġerythema": 3635,
      "Ġcriteria": 3636,
      "Ġregurgitation": 3637,
      "Ġdehydrogenase": 3638,
      "Ġhusband": 3639,
      "Co": 3640,
      "ices": 3641,
      "Ġbi": 3642,
      "vered": 3643,
      "astro": 3644,
      "reditary": 3645,
      "Ġmedi": 3646,
      "Ġgeneralized": 3647,
      "ariable": 3648,
      "ontinence": 3649,
      "Ġconcerned": 3650,
      "Ġmenstrual": 3651,
      "part": 3652,
      "ued": 3653,
      "Ġmulti": 3654,
      "Ġrestric": 3655,
      "ĠWe": 3656,
      "Ġdiscomfort": 3657,
      "Ġintermittent": 3658,
      "Ġprimarily": 3659,
      "athic": 3660,
      "ternative": 3661,
      "Ġprogression": 3662,
      "mal": 3663,
      "ising": 3664,
      "Ġinhal": 3665,
      "Inhib": 3666,
      "ilateral": 3667,
      "ects": 3668,
      "ĠPast": 3669,
      "Ġabuse": 3670,
      "Ġadult": 3671,
      "Ġpoison": 3672,
      "Ġmembranes": 3673,
      "Ġerythematous": 3674,
      "Ġprenatal": 3675,
      "ĠEp": 3676,
      "Ġuncom": 3677,
      "Ġgenital": 3678,
      "Ġconsti": 3679,
      "tras": 3680,
      "ĠLeuk": 3681,
      "Ġuterus": 3682,
      "Ġsummary": 3683,
      "Ġpup": 3684,
      "Ġrele": 3685,
      "ĠPositive": 3686,
      "Ġresection": 3687,
      "Ġhyperplasia": 3688,
      "ĠHistory": 3689,
      "trasound": 3690,
      "atoc": 3691,
      "Ġlay": 3692,
      "ĠHigh": 3693,
      "aine": 3694,
      "Ġsmooth": 3695,
      "Ġestim": 3696,
      "Ġveins": 3697,
      "Ġfrequency": 3698,
      "Ġremove": 3699,
      "Ġsecretion": 3700,
      "Ġwalking": 3701,
      "tt": 3702,
      "Ġsyphilis": 3703,
      "Ġduc": 3704,
      "iter": 3705,
      "ĠDecreased": 3706,
      "ĠType": 3707,
      "ĠPh": 3708,
      "Ġconsum": 3709,
      "lection": 3710,
      "Ġtravel": 3711,
      "ergic": 3712,
      "kalemia": 3713,
      "ĠAssess": 3714,
      "Ġintestine": 3715,
      "nes": 3716,
      "sycho": 3717,
      "Ġcystic": 3718,
      "unk": 3719,
      "astolic": 3720,
      "Ġhypo": 3721,
      "ĠFurther": 3722,
      "positive": 3723,
      "Ġelevation": 3724,
      "Ġpale": 3725,
      "Ġstruc": 3726,
      "Ġembolism": 3727,
      "iented": 3728,
      "Ġtransplantation": 3729,
      "Ġsuccess": 3730,
      "lusion": 3731,
      "rical": 3732,
      "ern": 3733,
      "Ġfull": 3734,
      "ulder": 3735,
      "ura": 3736,
      "ĠWith": 3737,
      "Ġconc": 3738,
      "Ġasc": 3739,
      "earing": 3740,
      "Ġabove": 3741,
      "ĠEs": 3742,
      "Ġlobe": 3743,
      "ĠGl": 3744,
      "Ġdespite": 3745,
      "Ġdyspnea": 3746,
      "Ġinjection": 3747,
      "betic": 3748,
      "Ġangiography": 3749,
      "Ġmight": 3750,
      "Ġthird": 3751,
      "Ġnarrow": 3752,
      "econd": 3753,
      "ĠTrans": 3754,
      "Ġconver": 3755,
      "eptic": 3756,
      "Ġplays": 3757,
      "Ġdevelops": 3758,
      "Ġjoints": 3759,
      "Ġseizure": 3760,
      "Ġmiddle": 3761,
      "Administer": 3762,
      "ALT": 3763,
      "Met": 3764,
      "Ġsitu": 3765,
      "ĠTo": 3766,
      "opro": 3767,
      "Ġproximal": 3768,
      "mental": 3769,
      "Ġaccomp": 3770,
      "Ġyellow": 3771,
      "alcemia": 3772,
      "ences": 3773,
      "olytic": 3774,
      "Ġessential": 3775,
      "Ġaccompan": 3776,
      "CE": 3777,
      "SF": 3778,
      "Ġamp": 3779,
      "elt": 3780,
      "Ġalb": 3781,
      "Ġincontinence": 3782,
      "induced": 3783,
      "Ġolder": 3784,
      "cho": 3785,
      "Ġpall": 3786,
      "Ġpseud": 3787,
      "Ġpituitary": 3788,
      "Ġgas": 3789,
      "imin": 3790,
      "ĠClinical": 3791,
      "Ġinfants": 3792,
      "Ġenh": 3793,
      "Ġobstruc": 3794,
      "Ġsystems": 3795,
      "Ġclot": 3796,
      "Ġdrink": 3797,
      "Ġelectroly": 3798,
      "Com": 3799,
      "Par": 3800,
      "sh": 3801,
      "ocortic": 3802,
      "asting": 3803,
      "Ġ27": 3804,
      "Ġattention": 3805,
      "negative": 3806,
      "Ġcorp": 3807,
      "Ġdecreas": 3808,
      "Ġbetter": 3809,
      "ephrine": 3810,
      "Ġhumans": 3811,
      "ieve": 3812,
      "ieved": 3813,
      "Ġvessel": 3814,
      "Ġcysts": 3815,
      "Ġsclerosis": 3816,
      "Ġpancreatic": 3817,
      "Ġsetting": 3818,
      "Ġproliferation": 3819,
      "lipid": 3820,
      "tle": 3821,
      "ather": 3822,
      "Ġbu": 3823,
      "Ġnever": 3824,
      "most": 3825,
      "lective": 3826,
      "Ġesophageal": 3827,
      "Ġgrade": 3828,
      "Ġexpression": 3829,
      "Ġmonitoring": 3830,
      "Ġdiuretics": 3831,
      "Ġpoisoning": 3832,
      "GF": 3833,
      "Ġson": 3834,
      "Ġgall": 3835,
      "ĠPT": 3836,
      "hocy": 3837,
      "agic": 3838,
      "aged": 3839,
      "Ġchills": 3840,
      "Ġpoint": 3841,
      "Ġinternal": 3842,
      "ogenic": 3843,
      "Ġidentified": 3844,
      "Ġpredic": 3845,
      "Ġremainder": 3846,
      "aphylococcus": 3847,
      "Na": 3848,
      "Ġsaf": 3849,
      "Ġinher": 3850,
      "lycer": 3851,
      "urs": 3852,
      "Ġconversion": 3853,
      "izz": 3854,
      "Ġadverse": 3855,
      "Ġtreating": 3856,
      "ources": 3857,
      "Ġaccording": 3858,
      "Ġcontrolled": 3859,
      "ergy": 3860,
      "ĠFindings": 3861,
      "It": 3862,
      "PD": 3863,
      "Ġsulf": 3864,
      "arp": 3865,
      "lox": 3866,
      "oprotein": 3867,
      "agul": 3868,
      "Ġach": 3869,
      "Ġmoderate": 3870,
      "Ġjaundice": 3871,
      "85": 3872,
      "CD": 3873,
      "DH": 3874,
      "Ġful": 3875,
      "Ġisol": 3876,
      "ĠDermat": 3877,
      "ĠPrimary": 3878,
      "ĠSup": 3879,
      "opatho": 3880,
      "Ġrib": 3881,
      "isting": 3882,
      "Ġcortic": 3883,
      "Ġendocarditis": 3884,
      "formation": 3885,
      "Ġnodules": 3886,
      "gia": 3887,
      "uinal": 3888,
      "Ġfri": 3889,
      "Ġprob": 3890,
      "Ġagon": 3891,
      "Ġcognitive": 3892,
      "Ġkinase": 3893,
      "Ġdepends": 3894,
      "Ġenzymes": 3895,
      "Ġpericarditis": 3896,
      "flammatory": 3897,
      "ES": 3898,
      "ief": 3899,
      "stic": 3900,
      "Ġpr": 3901,
      "olon": 3902,
      "ĠPain": 3903,
      "rio": 3904,
      "ongue": 3905,
      "Ġconsistent": 3906,
      "eficiency": 3907,
      "portive": 3908,
      "Ġcirrhosis": 3909,
      "Ġprocedures": 3910,
      "standing": 3911,
      ".,": 3912,
      "eren": 3913,
      "inephrine": 3914,
      "Ġnutri": 3915,
      "Ġlum": 3916,
      "rag": 3917,
      "ĠPres": 3918,
      "ĠSin": 3919,
      "Ġcand": 3920,
      "Ġinterco": 3921,
      "Ġepig": 3922,
      "Ġcompression": 3923,
      "Ġswollen": 3924,
      "Ġneeds": 3925,
      "Ġrecommend": 3926,
      "Ġprolonged": 3927,
      "Ġarrhythm": 3928,
      "bal": 3929,
      "ye": 3930,
      "Ġbind": 3931,
      "Ġmat": 3932,
      "Ġfree": 3933,
      "absor": 3934,
      "rackles": 3935,
      "Ġoccurred": 3936,
      "ryth": 3937,
      "Ġcyan": 3938,
      "omyel": 3939,
      "oglobulin": 3940,
      "lipidemia": 3941,
      "known": 3942,
      "Ġcur": 3943,
      "Ġfil": 3944,
      "Ġconduc": 3945,
      "Ġconduction": 3946,
      "Ġstable": 3947,
      "Ġshoulder": 3948,
      "apse": 3949,
      "Ġkn": 3950,
      "Ġphot": 3951,
      "Ġactivation": 3952,
      "Ġmalignancy": 3953,
      "meter": 3954,
      "Ġthickening": 3955,
      "25": 3956,
      "Hep": 3957,
      "bacter": 3958,
      "ping": 3959,
      "virus": 3960,
      "Ġsti": 3961,
      "Ġmaking": 3962,
      "Ġgram": 3963,
      "ticles": 3964,
      "opulmonary": 3965,
      "Ġchlor": 3966,
      "aped": 3967,
      "Ġpuls": 3968,
      "Ġlonger": 3969,
      "othelial": 3970,
      "\",": 3971,
      "NS": 3972,
      "Ġcarcin": 3973,
      "ĠpH": 3974,
      "Ġpyl": 3975,
      "Ġbed": 3976,
      "Ġinte": 3977,
      "Ġdata": 3978,
      "ito": 3979,
      "roduc": 3980,
      "omen": 3981,
      "Ġrefer": 3982,
      "iae": 3983,
      "Ġvi": 3984,
      "Ġparathyroid": 3985,
      "Ġgluc": 3986,
      "Ġpreventing": 3987,
      "Ġrefers": 3988,
      "Ġstrateg": 3989,
      "Ġflex": 3990,
      "Ġsepar": 3991,
      "Ġenlargement": 3992,
      "rich": 3993,
      "Ġsquamous": 3994,
      "Ġbar": 3995,
      "Ġdyst": 3996,
      "Ġhom": 3997,
      "ĠAm": 3998,
      "Ġlisinopril": 3999,
      "Ġhearing": 4000,
      "otrans": 4001,
      "Ġrun": 4002,
      "upus": 4003,
      "Ġadj": 4004,
      "Ġinfectious": 4005,
      "Ġtransmission": 4006,
      "ophren": 4007,
      "Ġspecies": 4008,
      "Ġremoval": 4009,
      "Ġprophyl": 4010,
      "Ġbranch": 4011,
      "Ġglomerul": 4012,
      "Ġstructure": 4013,
      "Ġca": 4014,
      "rohn": 4015,
      "Ġlate": 4016,
      "Ġvul": 4017,
      "ĠCy": 4018,
      "ophen": 4019,
      "Ġrub": 4020,
      "Ġrecur": 4021,
      "Ġsignal": 4022,
      "Ġsubt": 4023,
      "Ġfibers": 4024,
      "orrhea": 4025,
      "Ġpathology": 4026,
      "Ġendometrial": 4027,
      "aw": 4028,
      "based": 4029,
      "iver": 4030,
      "olol": 4031,
      "ĠCM": 4032,
      "Ġmotion": 4033,
      "Ġopen": 4034,
      "inalysis": 4035,
      "oglyc": 4036,
      "ĠFam": 4037,
      "Ġpla": 4038,
      "Ġspecial": 4039,
      "Ġhyd": 4040,
      "stitial": 4041,
      "Ġundergoing": 4042,
      "ĠÂ±": 4043,
      "bing": 4044,
      "esophageal": 4045,
      "asts": 4046,
      "osum": 4047,
      "genic": 4048,
      "ĠInfec": 4049,
      "ervation": 4050,
      "rectal": 4051,
      "Ġdefinition": 4052,
      "enicillin": 4053,
      "lamy": 4054,
      "Ġreceived": 4055,
      "Ġreflexes": 4056,
      "97": 4057,
      "ydro": 4058,
      "Ġsed": 4059,
      "letal": 4060,
      "omal": 4061,
      "lot": 4062,
      "ĠTwo": 4063,
      "ellar": 4064,
      "Ġperf": 4065,
      "Ġcellular": 4066,
      "Ġintake": 4067,
      "Ġimpairment": 4068,
      "Ġmuscular": 4069,
      "Ġmechanisms": 4070,
      "Ġmetabolism": 4071,
      "ĠImmun": 4072,
      "Ġetiology": 4073,
      "ait": 4074,
      "right": 4075,
      "Ġreferred": 4076,
      "idel": 4077,
      "keletal": 4078,
      "Ġdetermin": 4079,
      "Ġpalpitations": 4080,
      "Ġextremity": 4081,
      "poral": 4082,
      "Ġgroups": 4083,
      "Ġepithelial": 4084,
      "Ġinguinal": 4085,
      "14": 4086,
      "ped": 4087,
      "Ġsuff": 4088,
      "Ġcold": 4089,
      "ulse": 4090,
      "acy": 4091,
      "Ġgain": 4092,
      "Ġcommun": 4093,
      "tharg": 4094,
      "Ġletharg": 4095,
      "ried": 4096,
      "ĠInter": 4097,
      "Ġcolo": 4098,
      "apar": 4099,
      "Ġâī": 4100,
      "Ġmales": 4101,
      "Ġacidosis": 4102,
      "avirus": 4103,
      "Ġpotenti": 4104,
      "Ġsensitivity": 4105,
      "Ġsubstance": 4106,
      "Ġcytoplasm": 4107,
      "Ġcandid": 4108,
      "CC": 4109,
      "dosterone": 4110,
      "Ġself": 4111,
      "rox": 4112,
      "Ġlens": 4113,
      "putum": 4114,
      "plex": 4115,
      "ĠElevated": 4116,
      "gnos": 4117,
      "ĠInt": 4118,
      "Ġ48": 4119,
      "Ġdepend": 4120,
      "ioid": 4121,
      "Ġacids": 4122,
      "Ġbilirubin": 4123,
      "Ġfingers": 4124,
      "chizophren": 4125,
      "17": 4126,
      "Ġtongue": 4127,
      "ola": 4128,
      "Ġlig": 4129,
      "ypt": 4130,
      "Ġhistor": 4131,
      "ighs": 4132,
      "Ġconscious": 4133,
      "Ġworld": 4134,
      "Ġvalues": 4135,
      "Ġoccasional": 4136,
      "Ġconjunctivitis": 4137,
      "Ġbaby": 4138,
      "ĠAssessment": 4139,
      "-:": 4140,
      "18": 4141,
      "De": 4142,
      "ered": 4143,
      "ertion": 4144,
      "Ġpac": 4145,
      "ics": 4146,
      "idity": 4147,
      "ĠBenign": 4148,
      "ensin": 4149,
      "ĠOral": 4150,
      "ĠLow": 4151,
      "ycosis": 4152,
      "othiazide": 4153,
      "Ġsubsequ": 4154,
      "Ġsuper": 4155,
      "Ġpalpable": 4156,
      "arynx": 4157,
      "Ġcircum": 4158,
      "Ġsubstances": 4159,
      "Ġevents": 4160,
      "ĠLymph": 4161,
      "ependent": 4162,
      "bre": 4163,
      "real": 4164,
      "Ġsk": 4165,
      "Ġdark": 4166,
      "load": 4167,
      "hyroid": 4168,
      "ureus": 4169,
      "eart": 4170,
      "Ġneon": 4171,
      "ĠLo": 4172,
      "Ġrectal": 4173,
      "ĠGen": 4174,
      "othorax": 4175,
      "Ġradiograph": 4176,
      "ocardial": 4177,
      "Ġprocesses": 4178,
      "blastoma": 4179,
      "Ġinfluenza": 4180,
      "Ġbuild": 4181,
      ".\"": 4182,
      "ER": 4183,
      "bil": 4184,
      "vol": 4185,
      "Ġu": 4186,
      "letion": 4187,
      "osine": 4188,
      "osarcoma": 4189,
      "Ġves": 4190,
      "Ġatrium": 4191,
      "lux": 4192,
      "ancomycin": 4193,
      "Ġexample": 4194,
      "Ġleukocyte": 4195,
      "Ġpolyps": 4196,
      "Ġstimul": 4197,
      "Ġallergic": 4198,
      "Ġslight": 4199,
      "Ġaccompanied": 4200,
      "Ġtom": 4201,
      "Ġprac": 4202,
      "Ġmag": 4203,
      "Ġlact": 4204,
      "Ġoriented": 4205,
      "ĠEc": 4206,
      "Ġatrophy": 4207,
      "ĠRadi": 4208,
      "Ġrespond": 4209,
      "Ġeff": 4210,
      "Ġseconds": 4211,
      "Ġallows": 4212,
      "nis": 4213,
      "Ġtrop": 4214,
      "orption": 4215,
      "Ġbru": 4216,
      "Ġhall": 4217,
      "Ġhere": 4218,
      "otensin": 4219,
      "ocaine": 4220,
      "verticul": 4221,
      "Ġalpha": 4222,
      "cyc": 4223,
      "Ġlost": 4224,
      "Ġsymptomatic": 4225,
      "Ġhighly": 4226,
      "ember": 4227,
      "Ġexperienced": 4228,
      "Ġmolecules": 4229,
      "Ġassessment": 4230,
      "Ġamino": 4231,
      "Ġaccumulation": 4232,
      "Ġcorticoster": 4233,
      "36": 4234,
      "come": 4235,
      "Ġter": 4236,
      "Ġaureus": 4237,
      "Ġfer": 4238,
      "Ġfet": 4239,
      "ĠDys": 4240,
      "odg": 4241,
      "Ġstrain": 4242,
      "iform": 4243,
      "Ġchain": 4244,
      "Ġ29": 4245,
      "Ġdegeneration": 4246,
      "Ġshowed": 4247,
      "Ġarms": 4248,
      "andom": 4249,
      "oxide": 4250,
      "Ġshape": 4251,
      "Ġdiagnosing": 4252,
      "oblastic": 4253,
      "Ġfamilial": 4254,
      "ĠAddition": 4255,
      "Ġconfusion": 4256,
      "ĠUltrasound": 4257,
      "chlorothiazide": 4258,
      "loxacin": 4259,
      "ET": 4260,
      "block": 4261,
      "inations": 4262,
      "arts": 4263,
      "asia": 4264,
      "Ġstron": 4265,
      "ĠFever": 4266,
      "remia": 4267,
      "Ġfatty": 4268,
      "Ġobesity": 4269,
      "Ġstiff": 4270,
      "odgkin": 4271,
      "%)": 4272,
      "SD": 4273,
      "ky": 4274,
      "Ġsac": 4275,
      "Ġfocal": 4276,
      "rotic": 4277,
      "ĠCrohn": 4278,
      "Ġrates": 4279,
      "Ġatypical": 4280,
      "Ġ33": 4281,
      "Ġ72": 4282,
      "Ġpolyp": 4283,
      "Ġfemales": 4284,
      "Ġapproach": 4285,
      "Ġbehind": 4286,
      "Ġpathogenesis": 4287,
      "Ġorganisms": 4288,
      "Ġperitonitis": 4289,
      "Ġimmediately": 4290,
      "ficial": 4291,
      "16": 4292,
      "ton": 4293,
      "Ġbodies": 4294,
      "Ġder": 4295,
      "Ġdop": 4296,
      "Ġwarm": 4297,
      "Ġwithd": 4298,
      "Ġnote": 4299,
      "Ġsuperior": 4300,
      "Ġdevelopmental": 4301,
      "quired": 4302,
      "Ġoccasionally": 4303,
      "Ġdoses": 4304,
      "bility": 4305,
      "iment": 4306,
      "Ġpoin": 4307,
      "uclear": 4308,
      "Ġattem": 4309,
      "Ġfractures": 4310,
      "ochond": 4311,
      "Ġglycogen": 4312,
      "Ġchannels": 4313,
      "oderma": 4314,
      "Ġswallowing": 4315,
      "Ġmanifestations": 4316,
      "UN": 4317,
      "by": 4318,
      "ruction": 4319,
      "Ġaw": 4320,
      "oneph": 4321,
      "any": 4322,
      "ĠDo": 4323,
      "quate": 4324,
      "Ġacco": 4325,
      "Ġmedia": 4326,
      "Ġcolor": 4327,
      "Ġchildhood": 4328,
      "Ġviruses": 4329,
      "Ġindex": 4330,
      "Ġ150": 4331,
      "Ġcarotid": 4332,
      "lobulin": 4333,
      "rofen": 4334,
      "Ġesophagus": 4335,
      "\".": 4336,
      "DA": 4337,
      "Oral": 4338,
      "cutaneous": 4339,
      "etic": 4340,
      "Ġtet": 4341,
      "Ġtrunk": 4342,
      "ĠSkin": 4343,
      "ocl": 4344,
      "Ġdisco": 4345,
      "ĠMont": 4346,
      "ĠInc": 4347,
      "Ġpartial": 4348,
      "Ġtoxin": 4349,
      "Ġfraction": 4350,
      "Ġmetastasis": 4351,
      "Ġcollagen": 4352,
      "Ġchannel": 4353,
      "Ġmeningitis": 4354,
      "Ġtendon": 4355,
      "Ġtomography": 4356,
      "inc": 4357,
      "acer": 4358,
      "ĠDes": 4359,
      "amb": 4360,
      "Ġdied": 4361,
      "kinson": 4362,
      "Ġtransfusion": 4363,
      "lasts": 4364,
      "Ġ88": 4365,
      "Ġactivities": 4366,
      "ontrol": 4367,
      "Ġnerves": 4368,
      "Ġneutrophils": 4369,
      "au": 4370,
      "iosis": 4371,
      "ortion": 4372,
      "Ġanest": 4373,
      "Ġwaves": 4374,
      "urb": 4375,
      "ypes": 4376,
      "Ġdisting": 4377,
      "ĠMultiple": 4378,
      "Ġfollic": 4379,
      "Ġappend": 4380,
      "Ġker": 4381,
      "Ġunknown": 4382,
      "Ġinvolving": 4383,
      "Ġpathophys": 4384,
      "Ġattack": 4385,
      "Ġexposed": 4386,
      "osomes": 4387,
      "ĠPCI": 4388,
      "Ġspeech": 4389,
      "Inhibition": 4390,
      "izziness": 4391,
      "Ġfetus": 4392,
      "Ġdistingu": 4393,
      "void": 4394,
      "Ġsick": 4395,
      "Ġann": 4396,
      "ĠHist": 4397,
      "Ġalkal": 4398,
      "Ġenergy": 4399,
      "Ġoverall": 4400,
      "Ġmyel": 4401,
      "erty": 4402,
      "Ġpromin": 4403,
      "Ġdermatitis": 4404,
      "Ġsample": 4405,
      "75": 4406,
      "PT": 4407,
      "aise": 4408,
      "mall": 4409,
      "rated": 4410,
      "organ": 4411,
      "Ġmar": 4412,
      "Ġfill": 4413,
      "lecy": 4414,
      "etho": 4415,
      "ithromycin": 4416,
      "ĠPe": 4417,
      "ĠPl": 4418,
      "Ġonce": 4419,
      "ĠMI": 4420,
      "oneal": 4421,
      "ĠGi": 4422,
      "position": 4423,
      "rolif": 4424,
      "Ġdetection": 4425,
      "Ġnodule": 4426,
      "Ġhypotension": 4427,
      "Ġconstipation": 4428,
      "CM": 4429,
      "KG": 4430,
      "ched": 4431,
      "eas": 4432,
      "grade": 4433,
      "utis": 4434,
      "entral": 4435,
      "stream": 4436,
      "olitis": 4437,
      "Ġlarg": 4438,
      "Ġlupus": 4439,
      "Ġtrip": 4440,
      "Ġstones": 4441,
      "rown": 4442,
      "Ġcoli": 4443,
      "Ġexternal": 4444,
      "umbar": 4445,
      "Ġpuberty": 4446,
      "Ġdeposition": 4447,
      "Ġobstructive": 4448,
      "HCO": 4449,
      "ire": 4450,
      "kle": 4451,
      "asm": 4452,
      "ache": 4453,
      "Ġnam": 4454,
      "ĠAp": 4455,
      "ĠImp": 4456,
      "Ġlipid": 4457,
      "Ġcoun": 4458,
      "Ġfeeding": 4459,
      "Ġclick": 4460,
      "Ġenti": 4461,
      "Ġnormally": 4462,
      "Ġ140": 4463,
      "Ġgetting": 4464,
      "arfarin": 4465,
      "Ġestablished": 4466,
      "hab": 4467,
      "went": 4468,
      "head": 4469,
      "Ġwat": 4470,
      "ĠDrug": 4471,
      "resp": 4472,
      "umin": 4473,
      "Ġvasc": 4474,
      "Ġring": 4475,
      "Ġejection": 4476,
      "astin": 4477,
      "Ġact": 4478,
      "Ġ34": 4479,
      "Ġaggressive": 4480,
      "Ġdirec": 4481,
      "Ġtransport": 4482,
      "Ġexperiencing": 4483,
      "Ġepidem": 4484,
      "Ġbalance": 4485,
      "Ġ&": 4486,
      "Ġfoc": 4487,
      "roc": 4488,
      "Ġconstric": 4489,
      "Ġdisrup": 4490,
      "Ġexamin": 4491,
      "Ġalone": 4492,
      "uprofen": 4493,
      "ĠQRS": 4494,
      "ĠInf": 4495,
      "Ġpainless": 4496,
      "ughter": 4497,
      "Ġrespective": 4498,
      "moid": 4499,
      "Ġinvasive": 4500,
      "ocytic": 4501,
      "Ġinhibiting": 4502,
      "Ġchemical": 4503,
      "Ġappl": 4504,
      "Ġplaced": 4505,
      "Ġdegree": 4506,
      "Ġcomponent": 4507,
      "AR": 4508,
      "lb": 4509,
      "mature": 4510,
      "roin": 4511,
      "Inc": 4512,
      "aces": 4513,
      "Ġdispl": 4514,
      "agl": 4515,
      "ably": 4516,
      "Ġsple": 4517,
      "ĠHeal": 4518,
      "isted": 4519,
      "Ġcolle": 4520,
      "erebral": 4521,
      "Ġcontracep": 4522,
      "Ġprogressively": 4523,
      "Ġmolecule": 4524,
      "iatric": 4525,
      "Ġnitrogen": 4526,
      "Ġtoxicity": 4527,
      "Ġbegin": 4528,
      "Ġmaterial": 4529,
      "ĠAfrican": 4530,
      "rase": 4531,
      "rex": 4532,
      "Ġanat": 4533,
      "ank": 4534,
      "Ġhtt": 4535,
      "Intravenous": 4536,
      "ĠCor": 4537,
      "Ġstor": 4538,
      "Ġaccess": 4539,
      "Ġpercent": 4540,
      "ĠReg": 4541,
      "ĠThromb": 4542,
      "Ġhypers": 4543,
      "ĠStreptococcus": 4544,
      "Ġproducts": 4545,
      "ospor": 4546,
      "cardiogram": 4547,
      "Ġcaps": 4548,
      "Ġchoice": 4549,
      "Ġsternal": 4550,
      "Ġcontribute": 4551,
      "atocrit": 4552,
      "Ġestimated": 4553,
      "Urine": 4554,
      "gram": 4555,
      "ll": 4556,
      "Ġdominant": 4557,
      "Ġhalf": 4558,
      "actic": 4559,
      "ecting": 4560,
      "upp": 4561,
      "Ġdiameter": 4562,
      "Ġneurop": 4563,
      "Ġarteri": 4564,
      "Ġjunction": 4565,
      "Ġoutside": 4566,
      "Ġconfused": 4567,
      "Ġexcre": 4568,
      "Ġpapill": 4569,
      "Ġlymphocytes": 4570,
      "ĠÎ¼m": 4571,
      "Ġresearch": 4572,
      "Ġhemolytic": 4573,
      "Ġuncomplicated": 4574,
      "otransferase": 4575,
      "Ġhistorical": 4576,
      "//": 4577,
      "500": 4578,
      "://": 4579,
      "self": 4580,
      "Ġcram": 4581,
      "Ġmul": 4582,
      "stal": 4583,
      "acity": 4584,
      "ĠAcc": 4585,
      "resis": 4586,
      "Ġconsequ": 4587,
      "rombin": 4588,
      "ession": 4589,
      "apted": 4590,
      "avy": 4591,
      "Ġexpress": 4592,
      "Ġdestruction": 4593,
      "Ġconsciousness": 4594,
      "Di": 4595,
      "sin": 4596,
      "Ġpin": 4597,
      "omon": 4598,
      "Ġvir": 4599,
      "ĠBec": 4600,
      "genesis": 4601,
      "nder": 4602,
      "Ġrepres": 4603,
      "Ġreducing": 4604,
      "Ġflat": 4605,
      "Ġdilated": 4606,
      "etite": 4607,
      "Ġbenefit": 4608,
      "ipple": 4609,
      "Ġantico": 4610,
      "oprolol": 4611,
      "Ġfully": 4612,
      "Ġpotentially": 4613,
      "onephritis": 4614,
      "ĠMontreal": 4615,
      "Blood": 4616,
      "ND": 4617,
      "ging": 4618,
      "yros": 4619,
      "Ġtell": 4620,
      "Ġsputum": 4621,
      "Ġport": 4622,
      "org": 4623,
      "Ġfelt": 4624,
      "oler": 4625,
      "odil": 4626,
      "Ġspine": 4627,
      "ĠRisk": 4628,
      "Ġarri": 4629,
      "Ġinferior": 4630,
      "angitis": 4631,
      "Ġenc": 4632,
      "uscle": 4633,
      "Ġoutcome": 4634,
      "Ġproduces": 4635,
      "azep": 4636,
      "Ġsepsis": 4637,
      "Ġadenocarcinoma": 4638,
      "rocyte": 4639,
      "ynec": 4640,
      "Ġepiderm": 4641,
      "Ġdermat": 4642,
      "ifestyle": 4643,
      "Ġprostate": 4644,
      "razole": 4645,
      "Ġpylori": 4646,
      "Ġspleen": 4647,
      "200": 4648,
      "blastic": 4649,
      "patient": 4650,
      "ze": 4651,
      "Ġsore": 4652,
      "Ġbones": 4653,
      "Ġdon": 4654,
      "uture": 4655,
      "Ġthoracic": 4656,
      "opic": 4657,
      "ĠBe": 4658,
      "ĠFib": 4659,
      "ifications": 4660,
      "Ġimpaired": 4661,
      "Ġhypertrophy": 4662,
      "Ġimproved": 4663,
      "Ġreceive": 4664,
      "Ġkey": 4665,
      "rioventricular": 4666,
      "Trans": 4667,
      "rand": 4668,
      "Ġpan": 4669,
      "anine": 4670,
      "uted": 4671,
      "Ġtoo": 4672,
      "ĠTemplate": 4673,
      "ĠHeart": 4674,
      "Ġgal": 4675,
      "dip": 4676,
      "Ġstages": 4677,
      "atelets": 4678,
      "Ġathe": 4679,
      "Ġperfusion": 4680,
      "aminophen": 4681,
      "Ġdiverticul": 4682,
      "Ġjust": 4683,
      "Ġsupportive": 4684,
      "Ġcountries": 4685,
      "Ġfibro": 4686,
      "arrhythm": 4687,
      "ĠAlthough": 4688,
      "Ġdementia": 4689,
      "Ġdistrib": 4690,
      "Ġexcept": 4691,
      "Ġadenoma": 4692,
      "What": 4693,
      "aryng": 4694,
      "Ġnucleus": 4695,
      "eptide": 4696,
      "osinophilic": 4697,
      "'t": 4698,
      "CV": 4699,
      "gg": 4700,
      "kes": 4701,
      "Ġfind": 4702,
      "Ġstent": 4703,
      "ĠFol": 4704,
      "Ġappetite": 4705,
      "Ġscore": 4706,
      "Ġpara": 4707,
      "Ġunderwent": 4708,
      "Ġcorrect": 4709,
      "Ġendothelial": 4710,
      "dered": 4711,
      "Ġsignificantly": 4712,
      "Ġnuclei": 4713,
      "Ġstimulation": 4714,
      "Ġphosphate": 4715,
      "Ġdelayed": 4716,
      "CP": 4717,
      "CR": 4718,
      "cm": 4719,
      "oz": 4720,
      "viral": 4721,
      "ined": 4722,
      "here": 4723,
      "Ġsom": 4724,
      "Ġquality": 4725,
      "Ġris": 4726,
      "Ġcanal": 4727,
      "Ġmood": 4728,
      "plenomegaly": 4729,
      "ĠEKG": 4730,
      "ĠLab": 4731,
      "Ġherni": 4732,
      "Ġcontra": 4733,
      "ource": 4734,
      "Ġabsorption": 4735,
      "ĠIgG": 4736,
      "Ġpancreas": 4737,
      "specific": 4738,
      "ĠDiffuse": 4739,
      "eutic": 4740,
      "Ġepigastric": 4741,
      "idelines": 4742,
      "AST": 4743,
      "eft": 4744,
      "gent": 4745,
      "Ġbase": 4746,
      "Ġduod": 4747,
      "Ġfron": 4748,
      "ithiasis": 4749,
      "ĠDis": 4750,
      "Ġtricuspid": 4751,
      "Ġdistin": 4752,
      "Ġalways": 4753,
      "ugular": 4754,
      "Ġcancers": 4755,
      "Ġmanaged": 4756,
      "Ġwhether": 4757,
      "hydrox": 4758,
      "Ġsuddenly": 4759,
      "Ġaminotransferase": 4760,
      "shaped": 4761,
      "Ġwithdraw": 4762,
      "Ġrespectively": 4763,
      ".âĢĿ": 4764,
      "Normal": 4765,
      "risk": 4766,
      "Ġcross": 4767,
      "ulent": 4768,
      "oline": 4769,
      "iad": 4770,
      "Ġvers": 4771,
      "ĠSecond": 4772,
      "rile": 4773,
      "ĠUS": 4774,
      "Ġinterven": 4775,
      "Ġepilep": 4776,
      "time": 4777,
      "Ġnontender": 4778,
      "Ġfibrin": 4779,
      "Ġdaughter": 4780,
      "ĠIgA": 4781,
      "Ġmilk": 4782,
      "Ġtherapies": 4783,
      "Ġdrainage": 4784,
      "Ġsocial": 4785,
      "lamydia": 4786,
      "ĠHealth": 4787,
      "ele": 4788,
      "men": 4789,
      "pinal": 4790,
      "take": 4791,
      "Ġcrackles": 4792,
      "Ġread": 4793,
      "Ġlen": 4794,
      "imetry": 4795,
      "Ġresid": 4796,
      "athyroidism": 4797,
      "Ġ102": 4798,
      "hesia": 4799,
      "Ġdysplasia": 4800,
      "enteric": 4801,
      "Ġembry": 4802,
      "otide": 4803,
      "Ġencephalopathy": 4804,
      "ĠSpecifically": 4805,
      "ww": 4806,
      "Ġft": 4807,
      "Ġhard": 4808,
      "ĠAut": 4809,
      "ĠPneum": 4810,
      "torvastatin": 4811,
      "Ġaldosterone": 4812,
      "Ġdiabetic": 4813,
      "Ġintact": 4814,
      "Ġ42": 4815,
      "Ġextrac": 4816,
      "Ġabnormality": 4817,
      "cope": 4818,
      "alcium": 4819,
      "avir": 4820,
      "oplasma": 4821,
      "ĠSyst": 4822,
      "Ġaccur": 4823,
      "Ġaccident": 4824,
      "Ġexplains": 4825,
      "Ġdiscuss": 4826,
      "Ġmyelo": 4827,
      "Ġmelanoma": 4828,
      "ĠSurgery": 4829,
      "Ġseems": 4830,
      "absorption": 4831,
      "Template": 4832,
      "Ġown": 4833,
      "ork": 4834,
      "Ġbul": 4835,
      "Ġdizziness": 4836,
      "Ġtouch": 4837,
      "ĠDep": 4838,
      "Ġrule": 4839,
      "Ġweighs": 4840,
      "ĠRight": 4841,
      "derly": 4842,
      "Ġhyperlipidemia": 4843,
      "ĠUr": 4844,
      "Ġmalaise": 4845,
      "Ġextra": 4846,
      "Ġoutput": 4847,
      "piration": 4848,
      "ĠAdapted": 4849,
      "ready": 4850,
      "Ġcontractions": 4851,
      "Ġvaccines": 4852,
      "enetic": 4853,
      "Ġmethods": 4854,
      "Ġrecogn": 4855,
      "Perform": 4856,
      "phosphate": 4857,
      "Ġducts": 4858,
      "Ġknow": 4859,
      "Ġpractic": 4860,
      "AT": 4861,
      "dep": 4862,
      "xia": 4863,
      "Ġturn": 4864,
      "onance": 4865,
      "ĠmL": 4866,
      "acts": 4867,
      "ĠPR": 4868,
      "Ġventi": 4869,
      "ĠCa": 4870,
      "verage": 4871,
      "Ġquick": 4872,
      "Ġexpected": 4873,
      "Ġnotes": 4874,
      "netic": 4875,
      "Ġdiastolic": 4876,
      "Ġ85": 4877,
      "Ġmasses": 4878,
      "Ġblocking": 4879,
      "Ġfemoral": 4880,
      "Ġdescribe": 4881,
      "Ġelectrical": 4882,
      "linked": 4883,
      "Ġsaline": 4884,
      "Ġrapidly": 4885,
      "Ġintracellular": 4886,
      "ĠUpon": 4887,
      "Ġcorpuscular": 4888,
      "Ġstorage": 4889,
      "ners": 4890,
      "Â®": 4891,
      "Ġtall": 4892,
      "rea": 4893,
      "alp": 4894,
      "Ġmill": 4895,
      "Ġdrop": 4896,
      "stant": 4897,
      "ĠAL": 4898,
      "ĠHPV": 4899,
      "ift": 4900,
      "Ġcomplicated": 4901,
      "tisol": 4902,
      "Ġspecimen": 4903,
      "ologist": 4904,
      "Ġbiliary": 4905,
      "Ġrarely": 4906,
      "Hematocrit": 4907,
      "Ġdemonstrated": 4908,
      "chizophrenia": 4909,
      "vular": 4910,
      "Ġtro": 4911,
      "Ġpsycho": 4912,
      "aric": 4913,
      "Ġmakes": 4914,
      "Ġrhin": 4915,
      "Ġdev": 4916,
      "vida": 4917,
      "Ġregions": 4918,
      "ancre": 4919,
      "Ġoximetry": 4920,
      "Ġwheezing": 4921,
      "Ġlimb": 4922,
      "ĠCongenital": 4923,
      "psia": 4924,
      "Ġremains": 4925,
      "Chronic": 4926,
      "iki": 4927,
      "Ġmarkers": 4928,
      "Ġfungal": 4929,
      "yrosine": 4930,
      "lig": 4931,
      "Ġtable": 4932,
      "ester": 4933,
      "olid": 4934,
      "ĠTum": 4935,
      "Ġhereditary": 4936,
      "Ġordered": 4937,
      "essive": 4938,
      "ministration": 4939,
      "Ġadmission": 4940,
      "ropathy": 4941,
      "Ġintensity": 4942,
      "Ġ500": 4943,
      "Ġspecifically": 4944,
      "stead": 4945,
      "Ġmucosal": 4946,
      "ĠAtlas": 4947,
      "Ġnumbness": 4948,
      "Ġremoved": 4949,
      "ĠEnter": 4950,
      "Ġpredis": 4951,
      "IDS": 4952,
      "III": 4953,
      "Ġlining": 4954,
      "Ġuterine": 4955,
      "Ġspots": 4956,
      "Ġlayer": 4957,
      "Ġcontraind": 4958,
      "%,": 4959,
      "flow": 4960,
      "ground": 4961,
      "ived": 4962,
      "mine": 4963,
      "etric": 4964,
      "Ġround": 4965,
      "ĠStaphylococcus": 4966,
      "Ġminor": 4967,
      "ĠNew": 4968,
      "bladder": 4969,
      "Ġstools": 4970,
      "This": 4971,
      "tebral": 4972,
      "Ġcyanosis": 4973,
      "Ġcolorectal": 4974,
      "roliferative": 4975,
      "wh": 4976,
      "ĠMedical": 4977,
      "Ġcure": 4978,
      "Ġpunc": 4979,
      "Ġpigment": 4980,
      "Ġmem": 4981,
      "lovir": 4982,
      "acent": 4983,
      "Ġlifestyle": 4984,
      "ocomp": 4985,
      "Ġalready": 4986,
      "Ġopening": 4987,
      "Ġlob": 4988,
      "aker": 4989,
      "Ġtesticular": 4990,
      "Ġretinal": 4991,
      "Ġpneumoniae": 4992,
      "merase": 4993,
      "Ġhemorrhagic": 4994,
      "Ġstaining": 4995,
      "Ġmicroscopy": 4996,
      "Ġeasily": 4997,
      "Ġconsumption": 4998,
      "ier": 4999,
      "Ġtone": 5000,
      "Ġpet": 5001,
      "icitis": 5002,
      "Ġtool": 5003,
      "Ġtoler": 5004,
      "idazole": 5005,
      "ositis": 5006,
      "Ġrandom": 5007,
      "Ġegg": 5008,
      "ĠBased": 5009,
      "Ġenough": 5010,
      "ĠUs": 5011,
      "odyn": 5012,
      "Ġparalysis": 5013,
      "ancement": 5014,
      "Ġextent": 5015,
      "Ġlimbs": 5016,
      "orrho": 5017,
      "lioma": 5018,
      "ĠAden": 5019,
      "ocytopenia": 5020,
      "Ġsupply": 5021,
      "ĠIgM": 5022,
      "Ġphosphatase": 5023,
      "Ġfinger": 5024,
      "Ġfield": 5025,
      "ĠSince": 5026,
      "Ġstiffness": 5027,
      "IL": 5028,
      "Im": 5029,
      "MRI": 5030,
      "Ġtons": 5031,
      "Ġcri": 5032,
      "ators": 5033,
      "Ġfine": 5034,
      "odeficiency": 5035,
      "Ġgran": 5036,
      "ĠCSF": 5037,
      "illi": 5038,
      "Ġunit": 5039,
      "taining": 5040,
      "comes": 5041,
      "Ġblue": 5042,
      "Ġmajority": 5043,
      "Ġcultures": 5044,
      "Ġcholecy": 5045,
      "Ġmyeloid": 5046,
      "Ġamyloidosis": 5047,
      "gnostic": 5048,
      "AP": 5049,
      "RNA": 5050,
      "Ġib": 5051,
      "Ġod": 5052,
      "edia": 5053,
      "Ġdors": 5054,
      "Ġflo": 5055,
      "Ġthus": 5056,
      "Ġlit": 5057,
      "ument": 5058,
      "Ġconstant": 5059,
      "Ġstab": 5060,
      "agia": 5061,
      "ĠMin": 5062,
      "Ġbloody": 5063,
      "Ġpresenting": 5064,
      "ĠVitamin": 5065,
      "Ġtherefore": 5066,
      "ĠHypo": 5067,
      "Ġreflux": 5068,
      "Ġdisturb": 5069,
      "ĠLeft": 5070,
      "Ġhistopatho": 5071,
      "Ġneurons": 5072,
      "Ġrephras": 5073,
      "break": 5074,
      "Ġprominent": 5075,
      "65": 5076,
      "95": 5077,
      "At": 5078,
      "EMI": 5079,
      "rig": 5080,
      "ruct": 5081,
      "tase": 5082,
      "icle": 5083,
      "Ġmast": 5084,
      "Ġwrist": 5085,
      "Ġfist": 5086,
      "ecal": 5087,
      "ament": 5088,
      "Ġgross": 5089,
      "Ġgait": 5090,
      "Ġtrim": 5091,
      "ticip": 5092,
      "Ġdistention": 5093,
      "apt": 5094,
      "Ġarises": 5095,
      "aternal": 5096,
      "ĠUnder": 5097,
      "Ġ68": 5098,
      "oxy": 5099,
      "Ġinside": 5100,
      "Ġreactions": 5101,
      "Ġinjuries": 5102,
      "Ġprompt": 5103,
      "Ġpoorly": 5104,
      "ĠYou": 5105,
      "Ġaspiration": 5106,
      "hydration": 5107,
      "Ġtechniques": 5108,
      "ushing": 5109,
      "Ġlarger": 5110,
      "Ġhypersensitivity": 5111,
      "To": 5112,
      "jects": 5113,
      "Ġbic": 5114,
      "omatosis": 5115,
      "ida": 5116,
      "Ġsyndrom": 5117,
      "undle": 5118,
      "ĠHead": 5119,
      "ĠRBC": 5120,
      "Ġcoagulation": 5121,
      "Ġinterstitial": 5122,
      "tenance": 5123,
      "syst": 5124,
      "Ġminim": 5125,
      "oplastic": 5126,
      "Ġdifference": 5127,
      "Ġhydrochlorothiazide": 5128,
      "Ġamounts": 5129,
      "Ġmetastases": 5130,
      "lectro": 5131,
      "ĠRespiratory": 5132,
      "Ġinfiltration": 5133,
      "Ġdirectly": 5134,
      "Ġprofession": 5135,
      "Ġcorticosteroids": 5136,
      "Ġinterventions": 5137,
      ")?": 5138,
      "BUN": 5139,
      "PH": 5140,
      "Total": 5141,
      "US": 5142,
      "vant": 5143,
      "ľĶ": 5144,
      "Ġtear": 5145,
      "Ġfasc": 5146,
      "acial": 5147,
      "ithium": 5148,
      "ĠApp": 5149,
      "Ġperman": 5150,
      "ĠQT": 5151,
      "ronidazole": 5152,
      "ĠâľĶ": 5153,
      "Ġ78": 5154,
      "entricular": 5155,
      "Ġdetected": 5156,
      "102": 5157,
      "stein": 5158,
      "Ġechocardi": 5159,
      "Ġepithelium": 5160,
      "Ġadvanced": 5161,
      "Ġinduced": 5162,
      "Ġgradually": 5163,
      "Ġâī¥": 5164,
      "Ġdopamine": 5165,
      "Ġfocus": 5166,
      "Ġrisks": 5167,
      "cular": 5168,
      "sp": 5169,
      "Ġaz": 5170,
      "orosis": 5171,
      "Ġmiss": 5172,
      "eline": 5173,
      "ĠPy": 5174,
      "hour": 5175,
      "oper": 5176,
      "Ġalert": 5177,
      "Ġitching": 5178,
      "ignant": 5179,
      "assemia": 5180,
      "associated": 5181,
      "ĠHypert": 5182,
      "Ġangle": 5183,
      "osterior": 5184,
      "Ġsensory": 5185,
      "Ġcombined": 5186,
      "Ġlinked": 5187,
      "wards": 5188,
      "Ġreceiving": 5189,
      "ĠClass": 5190,
      "ĠDermatology": 5191,
      "omyelitis": 5192,
      "Ġpathophysiology": 5193,
      "Med": 5194,
      "reen": 5195,
      "Ġbasal": 5196,
      "imens": 5197,
      "ĠPle": 5198,
      "ĠPost": 5199,
      "otoxic": 5200,
      "umerous": 5201,
      "Ġvariable": 5202,
      "ochem": 5203,
      "ĠBl": 5204,
      "ĠOb": 5205,
      "Ġocclusion": 5206,
      "Ġoutcomes": 5207,
      "Ġvalue": 5208,
      "obacter": 5209,
      "ĠNegative": 5210,
      "Ġeyel": 5211,
      "rophages": 5212,
      "ullary": 5213,
      "Ġmucous": 5214,
      "Ġvaccination": 5215,
      "Ġcapillary": 5216,
      "Ġsuppress": 5217,
      "ĠEngl": 5218,
      "thalm": 5219,
      "Ġfoods": 5220,
      "Ġgangl": 5221,
      "If": 5222,
      "LA": 5223,
      "tile": 5224,
      "alk": 5225,
      "ingling": 5226,
      "ulatory": 5227,
      "idium": 5228,
      "atis": 5229,
      "thral": 5230,
      "rier": 5231,
      "Ġresonance": 5232,
      "izes": 5233,
      "Ġseek": 5234,
      "Ġade": 5235,
      "Ġassay": 5236,
      "Ġdouble": 5237,
      "Ġothers": 5238,
      "actam": 5239,
      "Ġserot": 5240,
      "Ġendocrine": 5241,
      "lected": 5242,
      "Ġinhibition": 5243,
      "Ġcapacity": 5244,
      "rocytes": 5245,
      "iazep": 5246,
      "Ġlocalized": 5247,
      "Ġmicroscopic": 5248,
      "ĠDiagnosis": 5249,
      "Ġburning": 5250,
      "Ġview": 5251,
      "Ġneonatal": 5252,
      "Surg": 5253,
      "retin": 5254,
      "Ġpump": 5255,
      "Ġwhy": 5256,
      "etine": 5257,
      "action": 5258,
      "ĠAND": 5259,
      "terial": 5260,
      "ĠCNS": 5261,
      "aget": 5262,
      "ĠMo": 5263,
      "Ġbloodstream": 5264,
      "Ġmostly": 5265,
      "Ġhapp": 5266,
      "ĠRet": 5267,
      "ĠRenal": 5268,
      "Ġcontains": 5269,
      "Ġ67": 5270,
      "Ġglut": 5271,
      "Ġalcoholic": 5272,
      "Ġimprovement": 5273,
      "Ġdrinking": 5274,
      "Ġurination": 5275,
      "Ġsusp": 5276,
      "mediated": 5277,
      "elvis": 5278,
      "SAID": 5279,
      "orpho": 5280,
      "Ġisolated": 5281,
      "Ġpoints": 5282,
      "Ġlength": 5283,
      "Ġsyndromes": 5284,
      "Ġpermanent": 5285,
      "Am": 5286,
      "vasive": 5287,
      "hep": 5288,
      "Ġpeptic": 5289,
      "Ġheavy": 5290,
      "ticle": 5291,
      "ĠAnemia": 5292,
      "thrombin": 5293,
      "ĠMuscle": 5294,
      "Ġrecord": 5295,
      "veness": 5296,
      "Ġplan": 5297,
      "oxetine": 5298,
      "weight": 5299,
      "ĠTherefore": 5300,
      "Ġ198": 5301,
      "Ġblockers": 5302,
      "Ġgraft": 5303,
      "Ġneurologic": 5304,
      "Ġcontraction": 5305,
      "Ġautosomal": 5306,
      "mediate": 5307,
      "Ġcompletely": 5308,
      "Ġolig": 5309,
      "Ġpancreatitis": 5310,
      "Ġimmediate": 5311,
      "Ġconnection": 5312,
      "robial": 5313,
      "Ġtopical": 5314,
      "Ġchloride": 5315,
      "Ġwithdrawal": 5316,
      "Ġibuprofen": 5317,
      "RBC": 5318,
      "Vitamin": 5319,
      "zhe": 5320,
      "onium": 5321,
      "atosus": 5322,
      "icin": 5323,
      "Ġmax": 5324,
      "olin": 5325,
      "ionic": 5326,
      "renergic": 5327,
      "iotic": 5328,
      "Ġearli": 5329,
      "Ġdemographic": 5330,
      "Ġthyroiditis": 5331,
      "Ġnuclear": 5332,
      "rocytoma": 5333,
      "Ġindicate": 5334,
      "Ġresolved": 5335,
      "orphic": 5336,
      "Ġcatheterization": 5337,
      "Ġdepressive": 5338,
      "Ġfriends": 5339,
      "Ġslightly": 5340,
      "ĠAdditionally": 5341,
      "Ġatheros": 5342,
      "38": 5343,
      "BV": 5344,
      "End": 5345,
      "hist": 5346,
      "rat": 5347,
      "xone": 5348,
      "Ġatorvastatin": 5349,
      "erob": 5350,
      "arly": 5351,
      "Ġgout": 5352,
      "ĠPseud": 5353,
      "hown": 5354,
      "ĠCr": 5355,
      "oporosis": 5356,
      "Ġstaging": 5357,
      "Ġchor": 5358,
      "ĠMR": 5359,
      "gnancy": 5360,
      "Ġloo": 5361,
      "Ġpreferred": 5362,
      "Ġmedicine": 5363,
      "Ġ58": 5364,
      "Ġâĸ": 5365,
      "vix": 5366,
      "Ġroot": 5367,
      "Ġglass": 5368,
      "ancies": 5369,
      "Ġrelax": 5370,
      "Ġbacterium": 5371,
      "Ġfunctions": 5372,
      "axia": 5373,
      "Ġstudying": 5374,
      "Ġinitially": 5375,
      "Ġconcentr": 5376,
      "riaxone": 5377,
      "Ġcryst": 5378,
      "Ġrelatively": 5379,
      "Ġpallor": 5380,
      "Ġinherited": 5381,
      "Ġpulses": 5382,
      "Ġlethargic": 5383,
      "ĠEchocardiography": 5384,
      "Ġmultiv": 5385,
      "eftriaxone": 5386,
      "Ig": 5387,
      "Sub": 5388,
      "such": 5389,
      "Ġaway": 5390,
      "Ġcateg": 5391,
      "Ġpenicillin": 5392,
      "Ġpelvis": 5393,
      "Ġdri": 5394,
      "Ġho": 5395,
      "aced": 5396,
      "ĠAortic": 5397,
      "Ġlapar": 5398,
      "eminated": 5399,
      "uman": 5400,
      "puted": 5401,
      "eps": 5402,
      "ĠNa": 5403,
      "ĠVal": 5404,
      "othal": 5405,
      "trum": 5406,
      "Ġmaintenance": 5407,
      "Ġmildly": 5408,
      "Ġredness": 5409,
      "Ġbackground": 5410,
      "ĠPeripheral": 5411,
      "Ġdilation": 5412,
      "Ġintracranial": 5413,
      "Ġrepeated": 5414,
      "Ġneoplasia": 5415,
      "Ġagonist": 5416,
      "Ġstrong": 5417,
      "Lymp": 5418,
      "PS": 5419,
      "Ġens": 5420,
      "Ġile": 5421,
      "icits": 5422,
      "losis": 5423,
      "ĠPap": 5424,
      "ĠPulse": 5425,
      "ĠSmall": 5426,
      "Ġrather": 5427,
      "fect": 5428,
      "Ġalle": 5429,
      "Ġacross": 5430,
      "char": 5431,
      "Ġ52": 5432,
      "Ġmeet": 5433,
      "actin": 5434,
      "Ġtestosterone": 5435,
      "Ġsurge": 5436,
      "ĠAll": 5437,
      "Ġvagina": 5438,
      "Ġpersonal": 5439,
      "glut": 5440,
      "Hyper": 5441,
      "Ġerr": 5442,
      "Ġcomponents": 5443,
      "Abdominal": 5444,
      "utism": 5445,
      "zheimer": 5446,
      "Is": 5447,
      "def": 5448,
      "gestion": 5449,
      "inol": 5450,
      "ald": 5451,
      "Ġsource": 5452,
      "Ġcof": 5453,
      "Ġbyp": 5454,
      "osupp": 5455,
      "resia": 5456,
      "ĠPelvic": 5457,
      "Ġstem": 5458,
      "asthen": 5459,
      "rief": 5460,
      "illus": 5461,
      "ĠNote": 5462,
      "ĠRep": 5463,
      "Ġrecall": 5464,
      "ipolar": 5465,
      "Ġsci": 5466,
      "kines": 5467,
      "Ġcalcification": 5468,
      "Ġveget": 5469,
      "Ġtubular": 5470,
      "Ġpersonality": 5471,
      "arbonate": 5472,
      "Ġstatement": 5473,
      "Ġpericardial": 5474,
      "Ġtechnique": 5475,
      "Ġrheumatoid": 5476,
      "bacterium": 5477,
      "acerb": 5478,
      "Ġentire": 5479,
      "Ġâĸ¸": 5480,
      "Cardi": 5481,
      "lit": 5482,
      "rates": 5483,
      "Ðµ": 5484,
      "Ġtingling": 5485,
      "ilic": 5486,
      "Ġgynec": 5487,
      "opause": 5488,
      "Ġcomposed": 5489,
      "Ġdiffer": 5490,
      "Ġcortisol": 5491,
      "101": 5492,
      "Ġblur": 5493,
      "Ġdamaged": 5494,
      "Ġgravida": 5495,
      "Ġseptum": 5496,
      "Ġelderly": 5497,
      "Ġerythematosus": 5498,
      "Ġdiscol": 5499,
      "Ġtrials": 5500,
      "Ġcontaining": 5501,
      "Ġsweating": 5502,
      "Ġexactly": 5503,
      "Ġprophylaxis": 5504,
      "Ġrecurrence": 5505,
      "Barr": 5506,
      "over": 5507,
      "sc": 5508,
      "toc": 5509,
      "Ã©": 5510,
      "onography": 5511,
      "Ġportion": 5512,
      "asone": 5513,
      "Ġwarfarin": 5514,
      "Ġng": 5515,
      "ĠWBC": 5516,
      "Ġasked": 5517,
      "Ġneu": 5518,
      "ĠOR": 5519,
      "ortex": 5520,
      "Ġsched": 5521,
      "Ġtransfer": 5522,
      "oidal": 5523,
      "Ġsharp": 5524,
      "Ġimmunoglobulin": 5525,
      "Ġheparin": 5526,
      "Ġillicit": 5527,
      "Ġattacks": 5528,
      "Ġvena": 5529,
      "ference": 5530,
      "Ġdietary": 5531,
      "Ġqd": 5532,
      "Ġsuggested": 5533,
      "Ġsuic": 5534,
      "Ġtremor": 5535,
      "Ġhalluc": 5536,
      "depress": 5537,
      "Ġquickly": 5538,
      "Ca": 5539,
      "bular": 5540,
      "onazole": 5541,
      "Ġbasis": 5542,
      "rot": 5543,
      "Ġlumbar": 5544,
      "amo": 5545,
      "umatic": 5546,
      "Ġvs": 5547,
      "ĠSch": 5548,
      "opa": 5549,
      "Ġexacerb": 5550,
      "Ġatresia": 5551,
      "Ġimages": 5552,
      "ialysis": 5553,
      "istant": 5554,
      "Ġpresented": 5555,
      "angu": 5556,
      "Ġunderst": 5557,
      "ocytoma": 5558,
      "Ġoutbreak": 5559,
      "Ġmainly": 5560,
      "osphate": 5561,
      "Ġpartners": 5562,
      "Ġproperly": 5563,
      "etitive": 5564,
      "Ġcava": 5565,
      "Ġcontinuous": 5566,
      "Ġplaying": 5567,
      "Ġacetyl": 5568,
      "Ġgallbladder": 5569,
      "ĠEnglish": 5570,
      "Ġdiscoloration": 5571,
      "Pulmonary": 5572,
      "cks": 5573,
      "cending": 5574,
      "ffer": 5575,
      "ject": 5576,
      "type": 5577,
      "wide": 5578,
      "xicillin": 5579,
      "Î²": 5580,
      "erve": 5581,
      "Ġcortex": 5582,
      "Ġanim": 5583,
      "Ġmamm": 5584,
      "itated": 5585,
      "Ġiss": 5586,
      "leb": 5587,
      "Ġnumerous": 5588,
      "idal": 5589,
      "Ġtrue": 5590,
      "Ġcondom": 5591,
      "Ġste": 5592,
      "Ġresusc": 5593,
      "Ġusual": 5594,
      "aminated": 5595,
      "Ġadm": 5596,
      "Ġintoler": 5597,
      "istently": 5598,
      "Ġmedial": 5599,
      "phagia": 5600,
      "Ġ62": 5601,
      "Ġparticip": 5602,
      "Ġmyx": 5603,
      "Ġextreme": 5604,
      "olysis": 5605,
      "ĠAbs": 5606,
      "Ġoriginal": 5607,
      "Ġdistribution": 5608,
      "Ġmemory": 5609,
      "\"\"": 5610,
      "68": 5611,
      "En": 5612,
      "VT": 5613,
      "bo": 5614,
      "for": 5615,
      "uation": 5616,
      "zo": 5617,
      "Î±": 5618,
      "Ġtermin": 5619,
      "Ġosm": 5620,
      "Ġfirm": 5621,
      "lymp": 5622,
      "Ġlabor": 5623,
      "amycin": 5624,
      "Ġtriad": 5625,
      "romised": 5626,
      "ript": 5627,
      "logist": 5628,
      "unting": 5629,
      "ophils": 5630,
      "Ġsection": 5631,
      "insic": 5632,
      "pirin": 5633,
      "Ġdeposits": 5634,
      "ĠSevere": 5635,
      "Ġgonad": 5636,
      "Ġreleased": 5637,
      "Ġdecreases": 5638,
      "Ġsafe": 5639,
      "Ġcritical": 5640,
      "mann": 5641,
      "ties": 5642,
      "Ġsarcoma": 5643,
      "omycosis": 5644,
      "usive": 5645,
      "ĠTSH": 5646,
      "otype": 5647,
      "thra": 5648,
      "Ġaltered": 5649,
      "ĠMore": 5650,
      "cystic": 5651,
      "Ġphysiological": 5652,
      "ociation": 5653,
      "phrag": 5654,
      "Ġimpact": 5655,
      "Ġreproduc": 5656,
      "Ġrelief": 5657,
      "Ġsignificance": 5658,
      "Ġ125": 5659,
      "Ġproducing": 5660,
      "Ġmainst": 5661,
      "Ġhygi": 5662,
      "rinary": 5663,
      "location": 5664,
      "Ġproblem": 5665,
      "Ġelectrocardiogram": 5666,
      "Ġlymphocytic": 5667,
      "Ġmarked": 5668,
      "Ġpenis": 5669,
      "Ġsediment": 5670,
      "Ġwatery": 5671,
      "Ġventilation": 5672,
      "odynamic": 5673,
      "22": 5674,
      "Protein": 5675,
      "Sup": 5676,
      "smo": 5677,
      "Ġbundle": 5678,
      "Ġdull": 5679,
      "anth": 5680,
      "Ġfuture": 5681,
      "ulations": 5682,
      "ulence": 5683,
      "acet": 5684,
      "urance": 5685,
      "ĠPaget": 5686,
      "Ġaspect": 5687,
      "thing": 5688,
      "Ġalve": 5689,
      "ĠEb": 5690,
      "ĠEf": 5691,
      "Ġshowing": 5692,
      "Ġ97": 5693,
      "amma": 5694,
      "Ġfunctional": 5695,
      "ogenesis": 5696,
      "eptid": 5697,
      "Ġbegins": 5698,
      "ĠÂ·": 5699,
      "radyc": 5700,
      "Ġrepeat": 5701,
      "Ġenhancement": 5702,
      "Ġprur": 5703,
      "Ġtrouble": 5704,
      "Ġrephrased": 5705,
      "Ġcrystals": 5706,
      "Ġsedimentation": 5707,
      "Ar": 5708,
      "High": 5709,
      "Low": 5710,
      "SR": 5711,
      "âĨ": 5712,
      "Ġtrain": 5713,
      "Ġsch": 5714,
      "Ġbac": 5715,
      "Inter": 5716,
      "olip": 5717,
      "oplast": 5718,
      "ades": 5719,
      "Ġatrioventricular": 5720,
      "Ġselective": 5721,
      "Ġhaem": 5722,
      "Ġmedian": 5723,
      "ĠGram": 5724,
      "Ġmeg": 5725,
      "rowth": 5726,
      "Ġconsider": 5727,
      "ĠAlternative": 5728,
      "Ġevaluated": 5729,
      "Ġclots": 5730,
      "Ġperiods": 5731,
      "Ġgives": 5732,
      "Ġdifferentiation": 5733,
      "Ġdifferentiate": 5734,
      "Ġmacrophages": 5735,
      "Ġjaw": 5736,
      "Ġphenomen": 5737,
      "Ġgangren": 5738,
      "ĠWeight": 5739,
      "itored": 5740,
      "nisone": 5741,
      "blockers": 5742,
      "Ġlittle": 5743,
      "Ġunderstood": 5744,
      "Ġanimals": 5745,
      "EN": 5746,
      "IN": 5747,
      "ruc": 5748,
      "Ġsites": 5749,
      "Ġcasts": 5750,
      "atum": 5751,
      "ili": 5752,
      "Ġnature": 5753,
      "ĠMild": 5754,
      "ĠBoth": 5755,
      "acterial": 5756,
      "Ġ--": 5757,
      "Ġmonitored": 5758,
      "Ġgeneration": 5759,
      "Ġstarting": 5760,
      "Ġneurotrans": 5761,
      "Ġremember": 5762,
      "Ġsensitive": 5763,
      "themia": 5764,
      "Ġresearcher": 5765,
      "Ġdystrophy": 5766,
      "Ġsuperficial": 5767,
      "Ġportal": 5768,
      "Ġpuncture": 5769,
      "systolic": 5770,
      "asthenia": 5771,
      "21": 5772,
      "MA": 5773,
      "No": 5774,
      "down": 5775,
      "ris": 5776,
      "inter": 5777,
      "reast": 5778,
      "algia": 5779,
      "Ġsn": 5780,
      "Ġput": 5781,
      "ories": 5782,
      "Ġankle": 5783,
      "aris": 5784,
      "Ġfund": 5785,
      "stable": 5786,
      "iliary": 5787,
      "ĠDem": 5788,
      "Ġexertion": 5789,
      "abolic": 5790,
      "Ġacts": 5791,
      "Ġ300": 5792,
      "enses": 5793,
      "ĠRed": 5794,
      "icians": 5795,
      "istry": 5796,
      "ips": 5797,
      "Ġkill": 5798,
      "ĠThree": 5799,
      "uscepti": 5800,
      "rospinal": 5801,
      "Ġdivid": 5802,
      "Ġcytom": 5803,
      "Ġairway": 5804,
      "Ġultrasonography": 5805,
      "Ġsugar": 5806,
      "Ġcoughing": 5807,
      "ococcus": 5808,
      "ĠCardiopulmonary": 5809,
      "Ġ2007": 5810,
      "Ġhypothyroidism": 5811,
      "Ġurea": 5812,
      "Ġslowly": 5813,
      "Ġclosely": 5814,
      "Ġpurpura": 5815,
      "Ġperforation": 5816,
      "Ġdiscovered": 5817,
      "Ġcouns": 5818,
      "omonas": 5819,
      "ĠSecondary": 5820,
      "Ġmainstay": 5821,
      "radycardia": 5822,
      "Elevated": 5823,
      "Ph": 5824,
      "Rec": 5825,
      "bital": 5826,
      "erence": 5827,
      "Ġumb": 5828,
      "Ġtyrosine": 5829,
      "tival": 5830,
      "Ġcal": 5831,
      "estive": 5832,
      "eds": 5833,
      "Ġfal": 5834,
      "Ġrequ": 5835,
      "Ġnas": 5836,
      "ury": 5837,
      "oside": 5838,
      "resh": 5839,
      "umab": 5840,
      "ĠWil": 5841,
      "Ġleak": 5842,
      "Ġimbal": 5843,
      "Ġarise": 5844,
      "Ġfeel": 5845,
      "Ġhyperc": 5846,
      "coun": 5847,
      "orexia": 5848,
      "Ġmalformation": 5849,
      "Ġrefrac": 5850,
      "Ġblack": 5851,
      "Ġexpans": 5852,
      "oplasmosis": 5853,
      "ĠParkinson": 5854,
      "Ġhematoma": 5855,
      "Ġteam": 5856,
      "microbial": 5857,
      "Ġrheumatic": 5858,
      "aucas": 5859,
      "Ġpurpose": 5860,
      "ĠLeukocytosis": 5861,
      "Ġnarrowing": 5862,
      "Ġcontraceptive": 5863,
      "rexate": 5864,
      "Ġepilepsy": 5865,
      "Ġmultivitamin": 5866,
      "phragm": 5867,
      "78": 5868,
      "HO": 5869,
      "RT": 5870,
      "bor": 5871,
      "vis": 5872,
      "Ġions": 5873,
      "onad": 5874,
      "Ġcenter": 5875,
      "Ġhot": 5876,
      "acute": 5877,
      "emaker": 5878,
      "terone": 5879,
      "ĠHel": 5880,
      "ĠCol": 5881,
      "ĠBrain": 5882,
      "ĠLDL": 5883,
      "Ġagg": 5884,
      "Ġ101": 5885,
      "trast": 5886,
      "Ġimmunodeficiency": 5887,
      "Ġcyto": 5888,
      "Ġminute": 5889,
      "Ġpolymerase": 5890,
      "Ġcomplaint": 5891,
      "Ġclos": 5892,
      "Ġmyocardium": 5893,
      "ococcal": 5894,
      "Ġgoing": 5895,
      "stit": 5896,
      "ithelial": 5897,
      "Ġsaliv": 5898,
      "Ġaxillary": 5899,
      "Ġsubsequent": 5900,
      "ontrolled": 5901,
      "Ġexcretion": 5902,
      "ĠTumor": 5903,
      "Ġearlier": 5904,
      "Ġbypass": 5905,
      "Ġcondoms": 5906,
      "Mean": 5907,
      "Patients": 5908,
      "na": 5909,
      "Ġtext": 5910,
      "Ġtamp": 5911,
      "Ġheter": 5912,
      "amen": 5913,
      "ailure": 5914,
      "otrexate": 5915,
      "opl": 5916,
      "ained": 5917,
      "Ġexhib": 5918,
      "pler": 5919,
      "ĠMon": 5920,
      "ĠBowel": 5921,
      "Ġ31": 5922,
      "Ġherpes": 5923,
      "ĠIns": 5924,
      "ĠIntra": 5925,
      "Ġappoint": 5926,
      "ventive": 5927,
      "Ġinvasion": 5928,
      "Ġpatches": 5929,
      "Ġendoscopy": 5930,
      "Ġdiagnoses": 5931,
      "iopathic": 5932,
      "ĠAlzheimer": 5933,
      "Ġinitiated": 5934,
      "Ġcervix": 5935,
      "uterol": 5936,
      "Ġregularly": 5937,
      "Ġnephropathy": 5938,
      "Ġmeasured": 5939,
      "Ġbelong": 5940,
      "Ġintervals": 5941,
      "Ġmaintaining": 5942,
      "Ġpharmacotherapy": 5943,
      "iminished": 5944,
      "Ġelectrolyte": 5945,
      "Ġsurgeon": 5946,
      "Ġneurotransmit": 5947,
      "bound": 5948,
      "flex": 5949,
      "nar": 5950,
      "vuls": 5951,
      "Ġotitis": 5952,
      "Ġcephal": 5953,
      "athetic": 5954,
      "idone": 5955,
      "Ġgive": 5956,
      "ime": 5957,
      "ĠPatient": 5958,
      "ĠSo": 5959,
      "Ġstarts": 5960,
      "Ġcomplement": 5961,
      "Ġalmost": 5962,
      "Ġlives": 5963,
      "Ġpremature": 5964,
      "ĠIniti": 5965,
      "ĠIntravenous": 5966,
      "april": 5967,
      "Ġyet": 5968,
      "Ġmeals": 5969,
      "Ġextensive": 5970,
      "Ġrelieve": 5971,
      "Ġ82": 5972,
      "Ġformed": 5973,
      "Ġvisible": 5974,
      "olemia": 5975,
      "Ġblister": 5976,
      "Ġamb": 5977,
      "Ġsyncope": 5978,
      "airs": 5979,
      "gesterone": 5980,
      "ĠPregnancy": 5981,
      "Ġcontinue": 5982,
      "ysmal": 5983,
      "Ġzone": 5984,
      "Ġvasodil": 5985,
      "Ġenvironmental": 5986,
      "ĠInfection": 5987,
      "Ġattemp": 5988,
      "Ġmillion": 5989,
      "SAIDs": 5990,
      "Ġhygiene": 5991,
      "EV": 5992,
      "Non": 5993,
      "Pre": 5994,
      "my": 5995,
      "oar": 5996,
      "Ġket": 5997,
      "inflammatory": 5998,
      "Ġschizophrenia": 5999,
      "Ġcreat": 6000,
      "Ġcutaneous": 6001,
      "atus": 6002,
      "Ġbot": 6003,
      "asons": 6004,
      "anic": 6005,
      "Ġharm": 6006,
      "Ġgroin": 6007,
      "Ġlev": 6008,
      "Ġdeletion": 6009,
      "Ġblocks": 6010,
      "ĠEurop": 6011,
      "Ġneural": 6012,
      "Ġrecessive": 6013,
      "aken": 6014,
      "Ġuni": 6015,
      "Ġintermediate": 6016,
      "rythem": 6017,
      "Ġdesign": 6018,
      "gests": 6019,
      "Ġsoon": 6020,
      "Ġdemonstrate": 6021,
      "Ġsleeping": 6022,
      "Ġknees": 6023,
      "Ġmetastatic": 6024,
      "Ġundergoes": 6025,
      "Ġpapillary": 6026,
      "Ġconfirmed": 6027,
      "Ġdigestive": 6028,
      "Ġmaternal": 6029,
      "parathyroidism": 6030,
      "Ġantagonist": 6031,
      "Ġpupils": 6032,
      "Ġplaques": 6033,
      "ĠAccording": 6034,
      "84": 6035,
      "Ob": 6036,
      "Type": 6037,
      "aem": 6038,
      "Ġect": 6039,
      "tigo": 6040,
      "isis": 6041,
      "Ġsix": 6042,
      "iction": 6043,
      "arse": 6044,
      "astic": 6045,
      "ulates": 6046,
      "amus": 6047,
      "ode": 6048,
      "Ġloop": 6049,
      "Ġarch": 6050,
      "domy": 6051,
      "Ġhealing": 6052,
      "feron": 6053,
      "Ġvisits": 6054,
      "Ġventricles": 6055,
      "Ġtwice": 6056,
      "ogenes": 6057,
      "ogenous": 6058,
      "egal": 6059,
      "Ġreactive": 6060,
      "Ġgiant": 6061,
      "Ġlymphoblastic": 6062,
      "Ġcirculation": 6063,
      "thalassemia": 6064,
      "lampsia": 6065,
      "Ġencephalitis": 6066,
      "Ġcholangitis": 6067,
      "Ġpenet": 6068,
      "Ġantagonists": 6069,
      "partate": 6070,
      "Ġconverted": 6071,
      "erenti": 6072,
      "Ġconducted": 6073,
      "Ġinterest": 6074,
      "cycline": 6075,
      "oclonal": 6076,
      "astinum": 6077,
      "Ġneuropathy": 6078,
      "72": 6079,
      "88": 6080,
      "On": 6081,
      "RA": 6082,
      "dys": 6083,
      "Ġtight": 6084,
      "Ġsuscepti": 6085,
      "icket": 6086,
      "Ġdro": 6087,
      "ĠAmong": 6088,
      "Ġlist": 6089,
      "ĠHb": 6090,
      "ĠPhen": 6091,
      "otoxin": 6092,
      "hob": 6093,
      "ĠCar": 6094,
      "ineal": 6095,
      "ĠOste": 6096,
      "Ġaged": 6097,
      "Ġhypothal": 6098,
      "apine": 6099,
      "anded": 6100,
      "Ġregulating": 6101,
      "Ġarterio": 6102,
      "Ġactivated": 6103,
      "Ġsimple": 6104,
      "Ġflank": 6105,
      "Ġretro": 6106,
      "Ġpartner": 6107,
      "Ġexcision": 6108,
      "Ġdiscontin": 6109,
      "Ġguarding": 6110,
      "Ġguidelines": 6111,
      "cephalus": 6112,
      "ĠHepatitis": 6113,
      "Ġtrigger": 6114,
      "Ġintercourse": 6115,
      "roxine": 6116,
      "Ġdistinct": 6117,
      "Ġdisturbances": 6118,
      "MS": 6119,
      "TC": 6120,
      "mus": 6121,
      "va": 6122,
      "vate": 6123,
      "Ġide": 6124,
      "Ġeth": 6125,
      "Ġtick": 6126,
      "Ġanomal": 6127,
      "Ġfive": 6128,
      "Ġlat": 6129,
      "igra": 6130,
      "ĠClo": 6131,
      "ĠCand": 6132,
      "Ġrig": 6133,
      "ouse": 6134,
      "Ġlips": 6135,
      "Ġcontaminated": 6136,
      "ivered": 6137,
      "Ġcompli": 6138,
      "Ġplatelets": 6139,
      "oxysmal": 6140,
      "Ġdetail": 6141,
      "arring": 6142,
      "ĠAlso": 6143,
      "Ġdelivered": 6144,
      "Ġmyocarditis": 6145,
      "Ġpublished": 6146,
      "Ġexperiences": 6147,
      "Ġinfiltrate": 6148,
      "Ġwalk": 6149,
      "Ġglomerular": 6150,
      "Ġacetaminophen": 6151,
      "Ġentail": 6152,
      "Ġparasite": 6153,
      "Ġarrhythmias": 6154,
      "Ġpolyposis": 6155,
      "habdomy": 6156,
      "Ġadequate": 6157,
      "Ġconcentrations": 6158,
      "Ġresuscitation": 6159,
      "35": 6160,
      "45": 6161,
      "Ag": 6162,
      "Aut": 6163,
      "Mon": 6164,
      "SV": 6165,
      "WBC": 6166,
      "arent": 6167,
      "dependent": 6168,
      "onade": 6169,
      "atation": 6170,
      "Ġmixed": 6171,
      "lear": 6172,
      "leeding": 6173,
      "olus": 6174,
      "ĠHydro": 6175,
      "radi": 6176,
      "irms": 6177,
      "Ġalternative": 6178,
      "plications": 6179,
      "Ġacquired": 6180,
      "udine": 6181,
      "Ġablation": 6182,
      "izations": 6183,
      "ĠLiver": 6184,
      "ĠGenetic": 6185,
      "Ġ56": 6186,
      "arct": 6187,
      "Ġtranscription": 6188,
      "Ġ96": 6189,
      "Ġextension": 6190,
      "Ġrelation": 6191,
      "Ġpersons": 6192,
      "Ġangio": 6193,
      "Ġdistended": 6194,
      "ĠAtrial": 6195,
      "Ġpossib": 6196,
      "Ġmetabol": 6197,
      "Ġangiotensin": 6198,
      "Ġwidely": 6199,
      "Ġrephrase": 6200,
      "82": 6201,
      "LE": 6202,
      "PE": 6203,
      "cence": 6204,
      "ny": 6205,
      "infec": 6206,
      "Ġaverage": 6207,
      "Ġpic": 6208,
      "Ġanimal": 6209,
      "Ġthym": 6210,
      "econium": 6211,
      "odes": 6212,
      "ofib": 6213,
      "Ġcongestive": 6214,
      "ubation": 6215,
      "perg": 6216,
      "ĠLV": 6217,
      "allen": 6218,
      "icile": 6219,
      "ĠFlu": 6220,
      "Ġantidepress": 6221,
      "Ġdifficile": 6222,
      "ĠUrine": 6223,
      "isseria": 6224,
      "Ġtemporal": 6225,
      "Ġuric": 6226,
      "Ġlymphatic": 6227,
      "Ġvalves": 6228,
      "Ġproductive": 6229,
      "Ġfunctioning": 6230,
      "Ġinhibits": 6231,
      "encephal": 6232,
      "Ġ135": 6233,
      "Ġconfirms": 6234,
      "osteron": 6235,
      "Ġsuggests": 6236,
      "rogenic": 6237,
      "Ġadminister": 6238,
      "Ġadenomatous": 6239,
      "ĠPericardi": 6240,
      "ĠPCR": 6241,
      "Ġmargin": 6242,
      "Ġstrategies": 6243,
      "arrhythmic": 6244,
      "Ġexpansion": 6245,
      "%',": 6246,
      "IS": 6247,
      "ctomy": 6248,
      "yg": 6249,
      "Ġpills": 6250,
      "Ġdate": 6251,
      "itral": 6252,
      "eter": 6253,
      "lored": 6254,
      "Ġtoget": 6255,
      "acid": 6256,
      "idance": 6257,
      "Ġlac": 6258,
      "ĠCC": 6259,
      "Ġprogram": 6260,
      "Ġsymp": 6261,
      "ĠMes": 6262,
      "ude": 6263,
      "ĠLung": 6264,
      "ĠFactor": 6265,
      "moking": 6266,
      "Ġscar": 6267,
      "roncho": 6268,
      "arean": 6269,
      "Ġarteritis": 6270,
      "onset": 6271,
      "everal": 6272,
      "ĠChlamydia": 6273,
      "cohol": 6274,
      "Ġ160": 6275,
      "Ġpredominant": 6276,
      "ĠAssociated": 6277,
      "Ġrevealed": 6278,
      "Ġsamples": 6279,
      "Ġretina": 6280,
      "Ġbroad": 6281,
      "aucoma": 6282,
      "ĠShort": 6283,
      "ĠFamily": 6284,
      "Ġdistinguish": 6285,
      "Increase": 6286,
      "Ġfloor": 6287,
      "Ġbicarbonate": 6288,
      "Ġphenomenon": 6289,
      "Ġtogether": 6290,
      ".'},": 6291,
      "Doc": 6292,
      "PG": 6293,
      "Res": 6294,
      "Se": 6295,
      "dl": 6296,
      "oor": 6297,
      "stim": 6298,
      "Ġtired": 6299,
      "Ġcut": 6300,
      "icter": 6301,
      "edema": 6302,
      "Ġbrown": 6303,
      "arone": 6304,
      "Ġdensity": 6305,
      "sts": 6306,
      "osplenomegaly": 6307,
      "ĠTra": 6308,
      "odiazep": 6309,
      "ĠHodgkin": 6310,
      "iring": 6311,
      "ypsin": 6312,
      "ĠAngi": 6313,
      "Ġalter": 6314,
      "Ġdeb": 6315,
      "Ġdevi": 6316,
      "ĠGastro": 6317,
      "Ġgenome": 6318,
      "Ġsurve": 6319,
      "Ġ54": 6320,
      "Ġeffic": 6321,
      "Ġmetoprolol": 6322,
      "Ġoccurring": 6323,
      "Ġ105": 6324,
      "Ġexamples": 6325,
      "ramine": 6326,
      "Ġdetecting": 6327,
      "Ġstudent": 6328,
      "Ġsimplex": 6329,
      "Ġneedle": 6330,
      "Ġpalpated": 6331,
      "Ġmechanical": 6332,
      "ilson": 6333,
      "Ġcirculating": 6334,
      "ebrile": 6335,
      "Ġmolecular": 6336,
      "antib": 6337,
      "Ġmeasurement": 6338,
      "Ġeventually": 6339,
      "Ġindicates": 6340,
      "Ġfields": 6341,
      "CoA": 6342,
      "oglycemia": 6343,
      "Ġvasculitis": 6344,
      "Ġpapilloma": 6345,
      "aryngitis": 6346,
      "ocompromised": 6347,
      "Ġhallucinations": 6348,
      "Eryth": 6349,
      "ML": 6350,
      "but": 6351,
      "bow": 6352,
      "oemb": 6353,
      "uros": 6354,
      "yd": 6355,
      "Ġ|": 6356,
      "Ġiod": 6357,
      "tiveness": 6358,
      "erh": 6359,
      "Ġsense": 6360,
      "Ġwr": 6361,
      "Ġwid": 6362,
      "Ġreticul": 6363,
      "ĠPE": 6364,
      "ĠCaucas": 6365,
      "abine": 6366,
      "ĠMening": 6367,
      "Ġhypox": 6368,
      "Ġcontent": 6369,
      "more": 6370,
      "Ġscarring": 6371,
      "Ġhyperch": 6372,
      "Ġbecame": 6373,
      "kinase": 6374,
      "Ġaffecting": 6375,
      "timal": 6376,
      "Ġminimal": 6377,
      "Ġhospitalized": 6378,
      "Ġvitals": 6379,
      "Ġprovides": 6380,
      "ussion": 6381,
      "Ġbehavioral": 6382,
      "Class": 6383,
      "Ġinfiltrates": 6384,
      "Ġsteroids": 6385,
      "Ġsolid": 6386,
      "Ġreturned": 6387,
      "Ġhemolysis": 6388,
      "Ġenvironment": 6389,
      "elihood": 6390,
      "Ġglomerulonephritis": 6391,
      "Ġpacemaker": 6392,
      "Ġconsequences": 6393,
      "Ġfistula": 6394,
      "Ġhypercalcemia": 6395,
      "Ġtamponade": 6396,
      "74": 6397,
      "Mo": 6398,
      "VC": 6399,
      "Ġ,": 6400,
      "heochrom": 6401,
      "ispl": 6402,
      "Ġsarc": 6403,
      "uled": 6404,
      "ucc": 6405,
      "eck": 6406,
      "olate": 6407,
      "ĠATP": 6408,
      "ĠHR": 6409,
      "horesis": 6410,
      "Ġcongestion": 6411,
      "ĠSim": 6412,
      "opo": 6413,
      "opical": 6414,
      "opress": 6415,
      "opathic": 6416,
      "Ġstay": 6417,
      "Ġprote": 6418,
      "Ġquestions": 6419,
      "ada": 6420,
      "ĠBone": 6421,
      "Ġoph": 6422,
      "ĠRheum": 6423,
      "Ġ46": 6424,
      "Ġeng": 6425,
      "Ġemp": 6426,
      "Ġregulate": 6427,
      "ephaly": 6428,
      "Ġimmunosupp": 6429,
      "Ġvalvular": 6430,
      "ĠCont": 6431,
      "Ġwalls": 6432,
      "Ġelbow": 6433,
      "Ġosteoporosis": 6434,
      "Ġvertigo": 6435,
      "soriasis": 6436,
      "Ġmesenteric": 6437,
      "ĠHepat": 6438,
      "Ġadded": 6439,
      "Ġintercostal": 6440,
      "Hepatitis": 6441,
      "Ġcandidiasis": 6442,
      "azepam": 6443,
      "Ġpanel": 6444,
      "Ġhistopathological": 6445,
      "hepatic": 6446,
      "osteronism": 6447,
      "DNA": 6448,
      "He": 6449,
      "NP": 6450,
      "hp": 6451,
      "prim": 6452,
      "rus": 6453,
      "inary": 6454,
      "Ġinstead": 6455,
      "Ġmorpho": 6456,
      "Ġwant": 6457,
      "acchar": 6458,
      "Ġren": 6459,
      "ĠTI": 6460,
      "terase": 6461,
      "rays": 6462,
      "umps": 6463,
      "direct": 6464,
      "romal": 6465,
      "Ġsymm": 6466,
      "agnes": 6467,
      "Ġrang": 6468,
      "Ġmove": 6469,
      "Ġaltern": 6470,
      "ĠBo": 6471,
      "ĠBiopsy": 6472,
      "cythemia": 6473,
      "Ġlik": 6474,
      "Ġagar": 6475,
      "aph": 6476,
      "apular": 6477,
      "Ġarrest": 6478,
      "Ġuncomfort": 6479,
      "Ġhyperp": 6480,
      "Ġregulation": 6481,
      "Ġdeficits": 6482,
      "hemoglobin": 6483,
      "Ġjugular": 6484,
      "Ġ2013": 6485,
      "ĠHypot": 6486,
      "going": 6487,
      "Ġprolapse": 6488,
      "ophilia": 6489,
      "Ġreplication": 6490,
      "roscopic": 6491,
      "feeding": 6492,
      "reptococcal": 6493,
      "Ġmilest": 6494,
      "Ġfalling": 6495,
      "Ġbasement": 6496,
      "Ġsupplementation": 6497,
      "ĠMalignant": 6498,
      "ĠSurgical": 6499,
      "eliac": 6500,
      "Ġelectrolytes": 6501,
      "Ġstrategy": 6502,
      "Ġcollege": 6503,
      "ĠCoronary": 6504,
      "Ġcapsule": 6505,
      "dipine": 6506,
      "Ġadmits": 6507,
      "53": 6508,
      "Bl": 6509,
      "aff": 6510,
      "ball": 6511,
      "vision": 6512,
      "yrid": 6513,
      "Ġpeptide": 6514,
      "esarean": 6515,
      "Ġinability": 6516,
      "ĠAIDS": 6517,
      "amate": 6518,
      "Ġvancomycin": 6519,
      "Ġbeers": 6520,
      "ĠSal": 6521,
      "Ġexud": 6522,
      "astinal": 6523,
      "ĠMac": 6524,
      "Ġliving": 6525,
      "ĠFl": 6526,
      "indamycin": 6527,
      "ulties": 6528,
      "Ġreduces": 6529,
      "Ġdifficulties": 6530,
      "iodarone": 6531,
      "Ġcarry": 6532,
      "Ġremarkable": 6533,
      "Ġweakened": 6534,
      "Ġidentifying": 6535,
      "Ġillnesses": 6536,
      "Ġpublic": 6537,
      "Ġabscesses": 6538,
      "Ġglyc": 6539,
      "Ġkeep": 6540,
      "Ġprobability": 6541,
      "Ġworldwide": 6542,
      "Ġanesthesia": 6543,
      "Ġfilling": 6544,
      "agland": 6545,
      "Ġduoden": 6546,
      "Ġrandomized": 6547,
      "Ġechocardiogram": 6548,
      "hpf": 6549,
      "Ġuncomfortable": 6550,
      "76": 6551,
      "berg": 6552,
      "Ġ%": 6553,
      "Ġtension": 6554,
      "Ġsider": 6555,
      "icles": 6556,
      "arth": 6557,
      "roti": 6558,
      "ĠACE": 6559,
      "dial": 6560,
      "ĠChem": 6561,
      "epilep": 6562,
      "eprazole": 6563,
      "ocellular": 6564,
      "uretic": 6565,
      "Ġeosinophilic": 6566,
      "ĠMuc": 6567,
      "Ġresemb": 6568,
      "Ġincluded": 6569,
      "Ġaff": 6570,
      "Ġhypop": 6571,
      "Ġantimicrobial": 6572,
      "Ġ44": 6573,
      "Ġcorrel": 6574,
      "deg": 6575,
      "Ġhormonal": 6576,
      "Ġreference": 6577,
      "Ġdistension": 6578,
      "Ġveh": 6579,
      "Ġhospitalization": 6580,
      "Ġapex": 6581,
      "Ġworsened": 6582,
      "Ġovaries": 6583,
      "Ġgets": 6584,
      "Ġplacement": 6585,
      "Ġresolution": 6586,
      "Ġantigens": 6587,
      "Ġpediatric": 6588,
      "Ġcruc": 6589,
      "ĠÎ¼g": 6590,
      "Ġbelieved": 6591,
      "Ġspontaneously": 6592,
      "Ġtherapeutic": 6593,
      "Ġforearm": 6594,
      "Ġdecreasing": 6595,
      "ĠPeople": 6596,
      "respons": 6597,
      "ĠBecause": 6598,
      "Ġdorsal": 6599,
      "ructose": 6600,
      "ĠUnderstanding": 6601,
      "Ġlikelihood": 6602,
      "DS": 6603,
      "aren": 6604,
      "lish": 6605,
      "tiary": 6606,
      "Ġpi": 6607,
      "Ġmature": 6608,
      "Ġandrogen": 6609,
      "ster": 6610,
      "ĠAvoid": 6611,
      "ĠTet": 6612,
      "Ġvo": 6613,
      "Ġtrying": 6614,
      "ĠSign": 6615,
      "ifamp": 6616,
      "aginal": 6617,
      "thase": 6618,
      "ĠEryth": 6619,
      "ĠESR": 6620,
      "raph": 6621,
      "Ġimm": 6622,
      "ĠNor": 6623,
      "Ġintensive": 6624,
      "ĠGer": 6625,
      "Ġ43": 6626,
      "Ġ59": 6627,
      "Ġfacil": 6628,
      "Ġemo": 6629,
      "Ġ92": 6630,
      "oidosis": 6631,
      "tivation": 6632,
      "Ġrad": 6633,
      "ĠHerpes": 6634,
      "Ġsubcutaneous": 6635,
      "ĠOnce": 6636,
      "Ġ122": 6637,
      "Ġproduct": 6638,
      "Ġmucus": 6639,
      "Ġapop": 6640,
      "Ġprovided": 6641,
      "Ġcerebrospinal": 6642,
      "Ġstructural": 6643,
      "Ġanxious": 6644,
      "Ġinvestigator": 6645,
      "Ġsupplements": 6646,
      "Ġbreakdown": 6647,
      "Ġsituations": 6648,
      "Ġarrhythmia": 6649,
      "Ġannual": 6650,
      "organism": 6651,
      "Ġpractice": 6652,
      "Ġensure": 6653,
      "Ġintolerance": 6654,
      "Ġefficacy": 6655,
      "27": 6656,
      "Red": 6657,
      "rating": 6658,
      "sulf": 6659,
      "Ġskeletal": 6660,
      "anz": 6661,
      "uric": 6662,
      "oses": 6663,
      "iable": 6664,
      "atives": 6665,
      "resistant": 6666,
      "ums": 6667,
      "hyper": 6668,
      "ĠAng": 6669,
      "Ġincons": 6670,
      "raction": 6671,
      "Ġataxia": 6672,
      "Ġdiap": 6673,
      "Ġlos": 6674,
      "Ġ47": 6675,
      "Ġ57": 6676,
      "Ġhyperparathyroidism": 6677,
      "iologic": 6678,
      "ĠVentricular": 6679,
      "Ġrot": 6680,
      "ranolol": 6681,
      "Ġinterf": 6682,
      "Ġhemodynamic": 6683,
      "yme": 6684,
      "Ġdescending": 6685,
      "Ġimportance": 6686,
      "Ġimproves": 6687,
      "Ġintravascular": 6688,
      "ethasone": 6689,
      "iltration": 6690,
      "ĠImaging": 6691,
      "ĠCDC": 6692,
      "Ġavoiding": 6693,
      "Ġbenefits": 6694,
      "Ġaddress": 6695,
      "Ġstopped": 6696,
      "Ġlumen": 6697,
      "Ġcommunity": 6698,
      "Ġligament": 6699,
      "Ġderived": 6700,
      "Ġmyeloma": 6701,
      "Ġnamed": 6702,
      "rythema": 6703,
      "heochromocytoma": 6704,
      "degree": 6705,
      "Ġvehicle": 6706,
      "AA": 6707,
      "HE": 6708,
      "His": 6709,
      "Hydro": 6710,
      "ioma": 6711,
      "lase": 6712,
      "me": 6713,
      "invasive": 6714,
      "icobacter": 6715,
      "arn": 6716,
      "Ġmas": 6717,
      "Ġdiminished": 6718,
      "emporal": 6719,
      "off": 6720,
      "ĠSw": 6721,
      "ione": 6722,
      "Ġleaf": 6723,
      "Ġhisti": 6724,
      "ĠEarly": 6725,
      "generative": 6726,
      "Ġimplant": 6727,
      "Ġneut": 6728,
      "ounds": 6729,
      "Ġclus": 6730,
      "Ġplex": 6731,
      "Ġtransf": 6732,
      "Ġunderstand": 6733,
      "Ġitself": 6734,
      "Ġsmaller": 6735,
      "Ġultim": 6736,
      "ogene": 6737,
      "Ġsynthase": 6738,
      "Ġdocument": 6739,
      "Ġsustained": 6740,
      "Ġhistological": 6741,
      "ĠMyocardial": 6742,
      "Ġconcerns": 6743,
      "ĠNeurologic": 6744,
      "Ġascites": 6745,
      "Ġsulfate": 6746,
      "Ġbinds": 6747,
      "Ġinteg": 6748,
      "Ġsubtypes": 6749,
      "Ġstrains": 6750,
      "ethoprim": 6751,
      "Ġdiverticulum": 6752,
      "Ġaccurate": 6753,
      "ĠCandida": 6754,
      "rotizing": 6755,
      "Dec": 6756,
      "Dia": 6757,
      "Fib": 6758,
      "IP": 6759,
      "OR": 6760,
      "Poly": 6761,
      "Urea": 6762,
      "flu": 6763,
      "wann": 6764,
      "Ã¶": 6765,
      "Ġtib": 6766,
      "onomic": 6767,
      "tif": 6768,
      "Ġoval": 6769,
      "Ġfasting": 6770,
      "ulus": 6771,
      "lodipine": 6772,
      "Ġrejection": 6773,
      "olipid": 6774,
      "ĠPlas": 6775,
      "diff": 6776,
      "Ġbeats": 6777,
      "agmus": 6778,
      "inea": 6779,
      "Ġlep": 6780,
      "ĠMeth": 6781,
      "Ġmanif": 6782,
      "Ġmmol": 6783,
      "Ġtempor": 6784,
      "coprotein": 6785,
      "embers": 6786,
      "Ġvariant": 6787,
      "Ġfatal": 6788,
      "locity": 6789,
      "ystagmus": 6790,
      "Ġmicroorganism": 6791,
      "Ġresolve": 6792,
      "Ġlipoprotein": 6793,
      "Ġirritable": 6794,
      "activation": 6795,
      "fibrom": 6796,
      "Ġsequence": 6797,
      "Ġskull": 6798,
      "Ġaccount": 6799,
      "ĠBeh": 6800,
      "Ġfront": 6801,
      "Surgical": 6802,
      "aldosteronism": 6803,
      "HA": 6804,
      "My": 6805,
      "ony": 6806,
      "Ġsister": 6807,
      "atremia": 6808,
      "icate": 6809,
      "Ġinst": 6810,
      "etin": 6811,
      "Ġreach": 6812,
      "Ġrevers": 6813,
      "Ġheat": 6814,
      "Ġglob": 6815,
      "ĠPers": 6816,
      "otyp": 6817,
      "ĠCentral": 6818,
      "ĠSer": 6819,
      "vern": 6820,
      "Ġexch": 6821,
      "Ġchallen": 6822,
      "raphy": 6823,
      "iber": 6824,
      "ysms": 6825,
      "Ġmedium": 6826,
      "assurance": 6827,
      "Ġoutpatient": 6828,
      "Ġoutflow": 6829,
      "Ġspecificity": 6830,
      "ĠCancer": 6831,
      "lamed": 6832,
      "ĠDiabetes": 6833,
      "appropriate": 6834,
      "ĠDirect": 6835,
      "Ġsuccessful": 6836,
      "Ġclotting": 6837,
      "olonoscopy": 6838,
      "Ġplaque": 6839,
      "Ġbuildup": 6840,
      "Ġepidemiology": 6841,
      "ĠUrinalysis": 6842,
      "Ġstabil": 6843,
      "Ġserotonin": 6844,
      "egalovirus": 6845,
      "ĠCaucasian": 6846,
      "Imp": 6847,
      "gov": 6848,
      "hort": 6849,
      "light": 6850,
      "pack": 6851,
      "zes": 6852,
      "inf": 6853,
      "Ġaer": 6854,
      "onucle": 6855,
      "Ġceftriaxone": 6856,
      "itch": 6857,
      "ĠAg": 6858,
      "ĠDil": 6859,
      "odular": 6860,
      "irs": 6861,
      "hyp": 6862,
      "Ġdehydration": 6863,
      "udy": 6864,
      "ĠBronch": 6865,
      "amines": 6866,
      "ĠRh": 6867,
      "Ġuptake": 6868,
      "echiae": 6869,
      "Ġformula": 6870,
      "Ġgrowing": 6871,
      "Ġblind": 6872,
      "ĠCons": 6873,
      "Left": 6874,
      "Ġulcerative": 6875,
      "Ġcomplexes": 6876,
      "Ġgoal": 6877,
      "Ġgestational": 6878,
      "Ġchromosomes": 6879,
      "Ġprotective": 6880,
      "Ġregional": 6881,
      "Ġprecip": 6882,
      "Ġcarbon": 6883,
      "Ġsuffer": 6884,
      "otropic": 6885,
      "ĠOrgan": 6886,
      "Ġinhaled": 6887,
      "Ġascending": 6888,
      "Ġalbuterol": 6889,
      "Ġcarcinomas": 6890,
      "ĠFamilial": 6891,
      "Ġcytoplasmic": 6892,
      "Ġmagnetic": 6893,
      "Ġkeratin": 6894,
      "Ġeggs": 6895,
      "erobic": 6896,
      "stimulating": 6897,
      "Ġmilestones": 6898,
      "epileptic": 6899,
      "RP": 6900,
      "ah": 6901,
      "Ġcocc": 6902,
      "icial": 6903,
      "Ġbite": 6904,
      "Ġmorb": 6905,
      "Ġwet": 6906,
      "ana": 6907,
      "Ġhouse": 6908,
      "Ġrebound": 6909,
      "amethasone": 6910,
      "ĠSens": 6911,
      "Ġprotr": 6912,
      "rach": 6913,
      "ĠEpid": 6914,
      "ĠBet": 6915,
      "Ġlive": 6916,
      "neal": 6917,
      "Ġregard": 6918,
      "actose": 6919,
      "Ġjob": 6920,
      "Ġhyperthyroidism": 6921,
      "Ġinspiration": 6922,
      "common": 6923,
      "Ġprevents": 6924,
      "Ġmineral": 6925,
      "Ġleukocytes": 6926,
      "Ġthrombus": 6927,
      "Ġbenz": 6928,
      "Ġcontraception": 6929,
      "Ġstimulate": 6930,
      "Ġhydrocephalus": 6931,
      "Ġcolonoscopy": 6932,
      "Ġgastroesophageal": 6933,
      "Ġincreasingly": 6934,
      "ĠNeurological": 6935,
      "Ġsweats": 6936,
      "Ġbrother": 6937,
      "Ġcopper": 6938,
      "Ġhttp": 6939,
      "ikiDoc": 6940,
      "oarthritis": 6941,
      "..": 6942,
      "FT": 6943,
      "Radi": 6944,
      "Renal": 6945,
      "tur": 6946,
      "Ġtors": 6947,
      "rees": 6948,
      "Ġocular": 6949,
      "Ġsem": 6950,
      "Ġcef": 6951,
      "Ġpage": 6952,
      "Ġbur": 6953,
      "Ġinner": 6954,
      "Ġwine": 6955,
      "Ġfusion": 6956,
      "Ġfixed": 6957,
      "unit": 6958,
      "ĠPub": 6959,
      "irium": 6960,
      "ĠWilson": 6961,
      "epithelial": 6962,
      "Ġexpect": 6963,
      "Ġchamb": 6964,
      "ĠElectro": 6965,
      "ĠBP": 6966,
      "Ġcellulitis": 6967,
      "Ġdiaphragm": 6968,
      "ĠOcc": 6969,
      "choline": 6970,
      "ĠInhib": 6971,
      "Ġintense": 6972,
      "Ġinfer": 6973,
      "Ġcontag": 6974,
      "ĠUV": 6975,
      "ardation": 6976,
      "Ġtransient": 6977,
      "ophthalm": 6978,
      "Ġobtain": 6979,
      "Ġseries": 6980,
      "Ġshift": 6981,
      "Ġproteinuria": 6982,
      "Ġhypertrophic": 6983,
      "Ġoxide": 6984,
      "Ġoxidase": 6985,
      "Ġnodular": 6986,
      "erectomy": 6987,
      "encies": 6988,
      "Ġevaluate": 6989,
      "Ġperforming": 6990,
      "Ġmenopause": 6991,
      "osinophils": 6992,
      "Ġcontinues": 6993,
      "ipidus": 6994,
      "Ġfungus": 6995,
      "Ġequal": 6996,
      "Ġutil": 6997,
      "Ġvirulence": 6998,
      "ĠSystemic": 6999,
      "Ġprofessional": 7000,
      "Lymphocy": 7001,
      "Ġtraining": 7002,
      "counter": 7003,
      "ĠHelicobacter": 7004,
      "Ġduodenum": 7005,
      "BG": 7006,
      "DP": 7007,
      "PO": 7008,
      "Pres": 7009,
      "dine": 7010,
      "with": 7011,
      "heal": 7012,
      "istic": 7013,
      "alapril": 7014,
      "Ġbias": 7015,
      "utation": 7016,
      "loon": 7017,
      "Ġtoday": 7018,
      "aches": 7019,
      "idog": 7020,
      "ĠTod": 7021,
      "ĠThyroid": 7022,
      "otassium": 7023,
      "ĠCA": 7024,
      "ĠCell": 7025,
      "racyc": 7026,
      "ĠMar": 7027,
      "ĠMid": 7028,
      "ĠMeas": 7029,
      "Ġsperm": 7030,
      "Ġloud": 7031,
      "Ġscro": 7032,
      "Ġunstable": 7033,
      "lopidog": 7034,
      "Ġenalapril": 7035,
      "Ġempt": 7036,
      "Ġlys": 7037,
      "Ġglaucoma": 7038,
      "untary": 7039,
      "Ġdeform": 7040,
      "Ġclinically": 7041,
      "Ġprevented": 7042,
      "Ġclosure": 7043,
      "Ġguide": 7044,
      "Ġdilatation": 7045,
      "roglycer": 7046,
      "ĠDeep": 7047,
      "Ġbronchi": 7048,
      "ĠPTH": 7049,
      "Ġsafety": 7050,
      "Direct": 7051,
      "Ġarrival": 7052,
      "ĠCrypt": 7053,
      "Ġrefractory": 7054,
      "lopidogrel": 7055,
      "32": 7056,
      "Primary": 7057,
      "burn": 7058,
      "ci": 7059,
      "cter": 7060,
      "gers": 7061,
      "lim": 7062,
      "oantib": 7063,
      "work": 7064,
      "Ġped": 7065,
      "Ġbipolar": 7066,
      "Ġdog": 7067,
      "itz": 7068,
      "Ġ'âĨ": 7069,
      "acco": 7070,
      "Ġretention": 7071,
      "osing": 7072,
      "osqu": 7073,
      "emide": 7074,
      "othy": 7075,
      "ĠCarb": 7076,
      "ophy": 7077,
      "aste": 7078,
      "segment": 7079,
      "ĠBreast": 7080,
      "Ġcausative": 7081,
      "Ġadhes": 7082,
      "Ġrectum": 7083,
      "ĠFem": 7084,
      "Ġappe": 7085,
      "Ġ53": 7086,
      "Ġfact": 7087,
      "oxif": 7088,
      "Ġoccurrence": 7089,
      "Ġtested": 7090,
      "tense": 7091,
      "Ġconsists": 7092,
      "Ġshunt": 7093,
      "Ġworking": 7094,
      "Ġ74": 7095,
      "Ġouter": 7096,
      "Ġfevers": 7097,
      "Ġinser": 7098,
      "Ġinsipidus": 7099,
      "ĠâĢĺ": 7100,
      "Ġstimulating": 7101,
      "Ġthickness": 7102,
      "Ġmitochond": 7103,
      "rograde": 7104,
      "Ġcrisis": 7105,
      "Ġconjunctival": 7106,
      "Ġallergies": 7107,
      "Ġrecovery": 7108,
      "Ġaxis": 7109,
      "Ġingestion": 7110,
      "retro": 7111,
      "Ġswallow": 7112,
      "ancreatic": 7113,
      "ĠPleural": 7114,
      "Ġcounseling": 7115,
      "39": 7116,
      "56": 7117,
      "For": 7118,
      "Rep": 7119,
      "Right": 7120,
      "Sch": 7121,
      "bumin": 7122,
      "nutri": 7123,
      "oked": 7124,
      "oactive": 7125,
      "ukin": 7126,
      "wing": 7127,
      "Ġion": 7128,
      "Ġicter": 7129,
      "Ġbrief": 7130,
      "rous": 7131,
      "locy": 7132,
      "ĠAR": 7133,
      "Ġlam": 7134,
      "amil": 7135,
      "ĠPatho": 7136,
      "diopathic": 7137,
      "Ġconj": 7138,
      "openic": 7139,
      "ading": 7140,
      "essation": 7141,
      "Ġpress": 7142,
      "Ġallowing": 7143,
      "ĠMen": 7144,
      "Ġacne": 7145,
      "ĠQu": 7146,
      "Ġspp": 7147,
      "apid": 7148,
      "Ġantiarrhythmic": 7149,
      "Ġtranslocation": 7150,
      "ournal": 7151,
      "echol": 7152,
      "Ġradiates": 7153,
      "cribed": 7154,
      "ĠNeisseria": 7155,
      "ritin": 7156,
      "angeal": 7157,
      "Ġanalog": 7158,
      "Ġ115": 7159,
      "Ġobservation": 7160,
      "CTH": 7161,
      "uterine": 7162,
      "Ġamoxicillin": 7163,
      "Ġpurulent": 7164,
      "Ġpassed": 7165,
      "Ġbegun": 7166,
      "Ġinsufficient": 7167,
      "igmentation": 7168,
      "Ġrestrictive": 7169,
      "lobulinemia": 7170,
      "Ġarteriosus": 7171,
      "Ġanticoagul": 7172,
      "Ġrenin": 7173,
      "responsive": 7174,
      "ifampin": 7175,
      "retroviral": 7176,
      "DR": 7177,
      "IC": 7178,
      "We": 7179,
      "hing": 7180,
      "iomy": 7181,
      "oi": 7182,
      "pH": 7183,
      "wik": 7184,
      "Ð°": 7185,
      "alangeal": 7186,
      "itr": 7187,
      "itoneal": 7188,
      "entesis": 7189,
      "lous": 7190,
      "acil": 7191,
      "Ġnipple": 7192,
      "ĠDr": 7193,
      "ĠDel": 7194,
      "ĠTric": 7195,
      "Ġlump": 7196,
      "Ġlithium": 7197,
      "iamine": 7198,
      "ĠHaem": 7199,
      "stridium": 7200,
      "Ġgerm": 7201,
      "igrated": 7202,
      "rawn": 7203,
      "ĠPsych": 7204,
      "opt": 7205,
      "Ġrise": 7206,
      "Ġchance": 7207,
      "Ġprescription": 7208,
      "ĠIL": 7209,
      "artan": 7210,
      "Ġseason": 7211,
      "Ġsphin": 7212,
      "Ġlook": 7213,
      "ĠOx": 7214,
      "Ġprep": 7215,
      "Ġpreventive": 7216,
      "ĠRA": 7217,
      "ĠInd": 7218,
      "ĠFEV": 7219,
      "ressive": 7220,
      "Ġinfusion": 7221,
      "iprof": 7222,
      "Ġ41": 7223,
      "orses": 7224,
      "oides": 7225,
      "Ġcollection": 7226,
      "Ġsmokes": 7227,
      "ĠChrom": 7228,
      "steine": 7229,
      "Ġseptic": 7230,
      "Ġfatigued": 7231,
      "Ġidiopathic": 7232,
      "Ġmentions": 7233,
      "Ġcapill": 7234,
      "White": 7235,
      "Ġproviders": 7236,
      "ĠUnlike": 7237,
      "ĠEnt": 7238,
      "Ġdeaths": 7239,
      "stitis": 7240,
      "Ġpathogens": 7241,
      "Ġsolution": 7242,
      "Ġperitoneal": 7243,
      "Ġsplenomegaly": 7244,
      "Ġreturns": 7245,
      "Ġpsychiatric": 7246,
      "ĠEsophageal": 7247,
      "Common": 7248,
      "Ġgallst": 7249,
      "ĠCMV": 7250,
      "Ġapplied": 7251,
      "Ġcramping": 7252,
      "Ġrepresent": 7253,
      "Ġrepresents": 7254,
      "Ġgallop": 7255,
      "hydroxylase": 7256,
      "smotic": 7257,
      "Ġresearchers": 7258,
      "Ġfalse": 7259,
      "Ġultimately": 7260,
      "Gram": 7261,
      "Hb": 7262,
      "Mal": 7263,
      "mod": 7264,
      "zed": 7265,
      "ĠÃ": 7266,
      "Ġsil": 7267,
      "oric": 7268,
      "Ġfinal": 7269,
      "Ġhab": 7270,
      "loss": 7271,
      "Ġreabsorption": 7272,
      "ĠTri": 7273,
      "ĠTest": 7274,
      "eless": 7275,
      "imedia": 7276,
      "ĠSeveral": 7277,
      "ured": 7278,
      "Ġquit": 7279,
      "rix": 7280,
      "ĠMan": 7281,
      "ĠNausea": 7282,
      "Ġages": 7283,
      "Ġadoles": 7284,
      "ĠIntern": 7285,
      "ĠInflammatory": 7286,
      "Ġafebrile": 7287,
      "Ġintox": 7288,
      "Ġnorep": 7289,
      "anged": 7290,
      "Ġscores": 7291,
      "Ġcla": 7292,
      "Ġclim": 7293,
      "Ġplant": 7294,
      "Ġ61": 7295,
      "Ġ94": 7296,
      "Ġintern": 7297,
      "ymmet": 7298,
      "aving": 7299,
      "Ġradial": 7300,
      "Ġpathological": 7301,
      "Ġworkup": 7302,
      "versity": 7303,
      "Ġecho": 7304,
      "chemic": 7305,
      "Ġparenchy": 7306,
      "Ġhimself": 7307,
      "Ġplacent": 7308,
      "ika": 7309,
      "olesterolemia": 7310,
      "Ġstanding": 7311,
      "ADH": 7312,
      "Ġbronchitis": 7313,
      "orphy": 7314,
      "partum": 7315,
      "ocorticoids": 7316,
      "Ġbarrier": 7317,
      "Ġdetermined": 7318,
      "ĠDespite": 7319,
      "Ġalkalosis": 7320,
      "Ġherniation": 7321,
      "Ġscheduled": 7322,
      "Ġplexus": 7323,
      "iprofloxacin": 7324,
      "Ġnorepinephrine": 7325,
      "Abs": 7326,
      "Calcium": 7327,
      "Diff": 7328,
      "carb": 7329,
      "xazole": 7330,
      "{{": 7331,
      "reening": 7332,
      "enh": 7333,
      "Ġcre": 7334,
      "attered": 7335,
      "ests": 7336,
      "omaly": 7337,
      "omatis": 7338,
      "Ġthigh": 7339,
      "veitis": 7340,
      "olality": 7341,
      "ĠDown": 7342,
      "ametho": 7343,
      "Ġgent": 7344,
      "igmoid": 7345,
      "Ġvaries": 7346,
      "irc": 7347,
      "Ġtried": 7348,
      "romuscular": 7349,
      "ichia": 7350,
      "Ġquestioning": 7351,
      "Ġcomple": 7352,
      "Ġcomputed": 7353,
      "ĠMyc": 7354,
      "ĠMany": 7355,
      "ĠBar": 7356,
      "Ġperi": 7357,
      "ĠLyme": 7358,
      "Ġrecip": 7359,
      "Ġinflamed": 7360,
      "Ġdoing": 7361,
      "Ġpower": 7362,
      "Ġraised": 7363,
      "Ġcorrec": 7364,
      "opharynx": 7365,
      "Ġeffectiveness": 7366,
      "onscious": 7367,
      "Ġendoscopic": 7368,
      "Ġurgent": 7369,
      "pects": 7370,
      "rolong": 7371,
      "avor": 7372,
      "Ġdysp": 7373,
      "omyositis": 7374,
      "Ġears": 7375,
      "Ġthrombocytopenia": 7376,
      "egion": 7377,
      "Ġattrib": 7378,
      "Ġanalges": 7379,
      "Ġelectron": 7380,
      "beat": 7381,
      "Ġcycles": 7382,
      "kaline": 7383,
      "Ġmurmurs": 7384,
      "Ġscleroderma": 7385,
      "ĠArterial": 7386,
      "Ġglycoprotein": 7387,
      "Ġallergy": 7388,
      "Ġprofile": 7389,
      "Ġconnective": 7390,
      "Ġneoplastic": 7391,
      "Ġobese": 7392,
      "lospor": 7393,
      "Ġdepressed": 7394,
      "ĠPresence": 7395,
      "Ġsignaling": 7396,
      "Ġhttps": 7397,
      "ĠEbola": 7398,
      "Ġsusceptible": 7399,
      "Ġhypothalamus": 7400,
      "Ġemotional": 7401,
      "Ġinterfere": 7402,
      "amethoxazole": 7403,
      "34": 7404,
      "Obs": 7405,
      "PC": 7406,
      "Ñĸ": 7407,
      "Ġuro": 7408,
      "Ġsources": 7409,
      "Ġcocaine": 7410,
      "Ġcesarean": 7411,
      "Ġpitting": 7412,
      "Ġbradycardia": 7413,
      "asing": 7414,
      "Ġdom": 7415,
      "itate": 7416,
      "leukin": 7417,
      "Ġhur": 7418,
      "static": 7419,
      "Ġtoes": 7420,
      "Ġtowards": 7421,
      "Ġreasons": 7422,
      "echo": 7423,
      "olute": 7424,
      "ĠTub": 7425,
      "odone": 7426,
      "Ġgap": 7427,
      "Ġgender": 7428,
      "Ġgrand": 7429,
      "ĠWor": 7430,
      "Ġasks": 7431,
      "opram": 7432,
      "Ġstric": 7433,
      "Ġdisability": 7434,
      "adrenergic": 7435,
      "abdominal": 7436,
      "ights": 7437,
      "ĠIr": 7438,
      "Ġoptic": 7439,
      "Ġopioid": 7440,
      "illain": 7441,
      "italopram": 7442,
      "Ġemphys": 7443,
      "Ġmetal": 7444,
      "opharyngeal": 7445,
      "Ġworried": 7446,
      "Ġ87": 7447,
      "Ġwhole": 7448,
      "othelioma": 7449,
      "ĠChild": 7450,
      "Ġsteps": 7451,
      "Ġretardation": 7452,
      "Ġapnea": 7453,
      "achypnea": 7454,
      "ĠAntib": 7455,
      "Ġhepatocellular": 7456,
      "vascularization": 7457,
      "Ġbranches": 7458,
      "Ġmigration": 7459,
      "roblasts": 7460,
      "Ġestablish": 7461,
      "ĠUpper": 7462,
      "Ġpupil": 7463,
      "Ġadjacent": 7464,
      "Ġsubsequently": 7465,
      "Ġanticoagulation": 7466,
      "Ġresidual": 7467,
      "defined": 7468,
      "Cardiac": 7469,
      "Ġextremely": 7470,
      "Ġreproductive": 7471,
      "Ġdivided": 7472,
      "Ġcytometry": 7473,
      "Ġdetailed": 7474,
      "Ġdeviation": 7475,
      "ĠToday": 7476,
      "Ġappeared": 7477,
      "86": 7478,
      "CL": 7479,
      "RH": 7480,
      "Shown": 7481,
      "XR": 7482,
      "ctive": 7483,
      "ding": 7484,
      "focal": 7485,
      "lusive": 7486,
      "muc": 7487,
      "meprazole": 7488,
      "niotic": 7489,
      "oqu": 7490,
      "ohn": 7491,
      "pox": 7492,
      "point": 7493,
      "vovirus": 7494,
      "worm": 7495,
      "eng": 7496,
      "Ġanomaly": 7497,
      "Ġbrid": 7498,
      "arter": 7499,
      "room": 7500,
      "Ġhold": 7501,
      "loy": 7502,
      "losystolic": 7503,
      "ĠDop": 7504,
      "Ġlif": 7505,
      "Ġlines": 7506,
      "Ġlangu": 7507,
      "ĠProp": 7508,
      "Ġasleep": 7509,
      "hers": 7510,
      "platelet": 7511,
      "ĠIU": 7512,
      "ĠNSAIDs": 7513,
      "icious": 7514,
      "ĠGold": 7515,
      "ĠGerm": 7516,
      "Ġantiretroviral": 7517,
      "Ġ63": 7518,
      "ĠVariable": 7519,
      "Ġparam": 7520,
      "Ġobst": 7521,
      "Ġdecline": 7522,
      "Ġhemorrho": 7523,
      "Ġendemic": 7524,
      "Ġju": 7525,
      "trypsin": 7526,
      "Ġimmuno": 7527,
      "Ġhypertensive": 7528,
      "achment": 7529,
      "Ġfailed": 7530,
      "Ġreductase": 7531,
      "Ġblockage": 7532,
      "Ġvelocity": 7533,
      "Ġ145": 7534,
      "Ġdefective": 7535,
      "ximab": 7536,
      "Ġadenosine": 7537,
      "rocytosis": 7538,
      "Ġscreen": 7539,
      "STEMI": 7540,
      "Ġgoes": 7541,
      "Ġpopulations": 7542,
      "Ġyounger": 7543,
      "Ġplacebo": 7544,
      "Ġpsychiat": 7545,
      "Ġinfluenzae": 7546,
      "otropin": 7547,
      "Ġpseudo": 7548,
      "Ġsettings": 7549,
      "ĠCyt": 7550,
      "Ġspecialized": 7551,
      "Ġdisplacement": 7552,
      "Ġpink": 7553,
      "Ġextracellular": 7554,
      "ĠUsually": 7555,
      "Ġileus": 7556,
      "amoeb": 7557,
      "Ġissues": 7558,
      "Ġaggreg": 7559,
      "Ġappointment": 7560,
      "hobia": 7561,
      "ophthalmitis": 7562,
      "roglycerin": 7563,
      "osquito": 7564,
      "nutrition": 7565,
      "Ġsphincter": 7566,
      "Ep": 7567,
      "Gen": 7568,
      "LI": 7569,
      "NF": 7570,
      "TE": 7571,
      "ged": 7572,
      "noid": 7573,
      "vus": 7574,
      "yto": 7575,
      "Ġten": 7576,
      "inia": 7577,
      "arach": 7578,
      "Ġmembers": 7579,
      "Int": 7580,
      "ĠAge": 7581,
      "ĠPA": 7582,
      "ĠWhe": 7583,
      "dient": 7584,
      "opaus": 7585,
      "izumab": 7586,
      "Ġliqu": 7587,
      "ĠNit": 7588,
      "ĠLDH": 7589,
      "Ġpulmon": 7590,
      "Ġsheath": 7591,
      "ungal": 7592,
      "Ġ64": 7593,
      "Ġcolum": 7594,
      "Ġcolonic": 7595,
      "Ġspectrum": 7596,
      "Ġimmunity": 7597,
      "Ġpalate": 7598,
      "Ġpneumothorax": 7599,
      "Ġulceration": 7600,
      "Ġmodality": 7601,
      "Ġclean": 7602,
      "ĠAsc": 7603,
      "Ġcataly": 7604,
      "Ġnotice": 7605,
      "Ġmicrob": 7606,
      "ruvate": 7607,
      "ĠMyco": 7608,
      "Ġunconscious": 7609,
      "Ġgranulomas": 7610,
      "Ġgenitalia": 7611,
      "Ġinherit": 7612,
      "Ġmatter": 7613,
      "Ġbruising": 7614,
      "Ġalkaline": 7615,
      "www": 7616,
      "Ġdevice": 7617,
      "Ġblisters": 7618,
      "icketts": 7619,
      "Ġsympathetic": 7620,
      "Ġhypercholesterolemia": 7621,
      "ogeneous": 7622,
      "Ġinfertility": 7623,
      "amoeba": 7624,
      "arachnoid": 7625,
      "opausal": 7626,
      "55": 7627,
      "64": 7628,
      "AF": 7629,
      "AN": 7630,
      "BB": 7631,
      "Bs": 7632,
      "Hodgkin": 7633,
      "Topical": 7634,
      "Ul": 7635,
      "Un": 7636,
      "eat": 7637,
      "gu": 7638,
      "nem": 7639,
      "pread": 7640,
      "}}": 7641,
      "Ġbases": 7642,
      "aster": 7643,
      "Ġdental": 7644,
      "utz": 7645,
      "utter": 7646,
      "Ġnurse": 7647,
      "eces": 7648,
      "ĠADH": 7649,
      "otes": 7650,
      "Ġtrach": 7651,
      "ĠSho": 7652,
      "ague": 7653,
      "Ġspor": 7654,
      "Ġscalp": 7655,
      "acting": 7656,
      "cessive": 7657,
      "Ġcorneal": 7658,
      "Ġobjects": 7659,
      "Ġserv": 7660,
      "Ġdecomp": 7661,
      "Ġblocker": 7662,
      "ĠAdministration": 7663,
      "Ġthromboplast": 7664,
      "ĠIIb": 7665,
      "Ġresponses": 7666,
      "ĠAbnormal": 7667,
      "Ġtoxins": 7668,
      "ĠProtein": 7669,
      "Ġresting": 7670,
      "Ġgreatest": 7671,
      "Ġastrocytoma": 7672,
      "Ġavoided": 7673,
      "ĠAmerica": 7674,
      "Ġductus": 7675,
      "iscontin": 7676,
      "activity": 7677,
      "Ġcurve": 7678,
      "Ġtropho": 7679,
      "Ġfollicular": 7680,
      "Ġnames": 7681,
      "Ġcholecyst": 7682,
      "ĠHeadache": 7683,
      "Ġallevi": 7684,
      "Ġpicture": 7685,
      "Ġvoice": 7686,
      "Ġemphysema": 7687,
      "Ġthromboplastin": 7688,
      "Acc": 7689,
      "Other": 7690,
      "Osm": 7691,
      "Phys": 7692,
      "Phen": 7693,
      "aid": 7694,
      "cur": 7695,
      "cend": 7696,
      "ike": 7697,
      "mb": 7698,
      "mark": 7699,
      "ored": 7700,
      "tit": 7701,
      "Ġcalf": 7702,
      "Ġcessation": 7703,
      "orough": 7704,
      "anus": 7705,
      "anol": 7706,
      "Ġfructose": 7707,
      "entan": 7708,
      "ilical": 7709,
      "Ġnor": 7710,
      "Ġnoc": 7711,
      "ector": 7712,
      "ĠDiss": 7713,
      "Ġforamen": 7714,
      "imum": 7715,
      "Ġortho": 7716,
      "opsy": 7717,
      "Ġever": 7718,
      "pling": 7719,
      "Ġcoord": 7720,
      "apamil": 7721,
      "âĢĶ": 7722,
      "ĠGastric": 7723,
      "usception": 7724,
      "core": 7725,
      "colored": 7726,
      "ĠVis": 7727,
      "Ġmeta": 7728,
      "Ġ76": 7729,
      "pective": 7730,
      "Ġ84": 7731,
      "Ġcompress": 7732,
      "ovir": 7733,
      "ervative": 7734,
      "Ġstudied": 7735,
      "tilage": 7736,
      "Ġgradient": 7737,
      "Ġsecrete": 7738,
      "Ġclearance": 7739,
      "idespread": 7740,
      "ĠImage": 7741,
      "thalmo": 7742,
      "Ġverteb": 7743,
      "Ġhematuria": 7744,
      "Ġfoul": 7745,
      "Ġindicative": 7746,
      "Ġpathways": 7747,
      "Ġenters": 7748,
      "flammation": 7749,
      "Ġesophagitis": 7750,
      "cherichia": 7751,
      "ĠWithout": 7752,
      "Ġachieve": 7753,
      "Ġflexion": 7754,
      "Ġprophylactic": 7755,
      "ĠGeneral": 7756,
      "ĠRadiation": 7757,
      "Ġcontraindicated": 7758,
      "otoxicity": 7759,
      "Ġatherosclerosis": 7760,
      "Ġosmolality": 7761,
      "opressin": 7762,
      "optysis": 7763,
      "73": 7764,
      "BP": 7765,
      "HC": 7766,
      "LD": 7767,
      "TS": 7768,
      "hther": 7769,
      "meg": 7770,
      "ohyd": 7771,
      "pre": 7772,
      "inity": 7773,
      "ese": 7774,
      "Ġmis": 7775,
      "ancer": 7776,
      "itt": 7777,
      "Ġfecal": 7778,
      "Ġtob": 7779,
      "Ġtook": 7780,
      "Ġnystagmus": 7781,
      "osclerosis": 7782,
      "ĠTB": 7783,
      "ellosis": 7784,
      "Ġhen": 7785,
      "igital": 7786,
      "imental": 7787,
      "ott": 7788,
      "Ġstret": 7789,
      "Ġcome": 7790,
      "Ġcomm": 7791,
      "Ġeat": 7792,
      "thle": 7793,
      "ables": 7794,
      "Ġincom": 7795,
      "rip": 7796,
      "ĠBleeding": 7797,
      "Ġcausal": 7798,
      "ubicin": 7799,
      "Ġagitated": 7800,
      "chi": 7801,
      "ĠGross": 7802,
      "ociety": 7803,
      "Ġ51": 7804,
      "Ġhyperg": 7805,
      "ĠVol": 7806,
      "rani": 7807,
      "actate": 7808,
      "actone": 7809,
      "Ġwords": 7810,
      "Ġthereby": 7811,
      "Ġcompar": 7812,
      "avicular": 7813,
      "Ġtubule": 7814,
      "Ġretrograde": 7815,
      "Ġ112": 7816,
      "ĠPrevention": 7817,
      "ĠPrognosis": 7818,
      "Ġosteomyelitis": 7819,
      "Ġpatterns": 7820,
      "Ġhematoc": 7821,
      "Ġhepatomegaly": 7822,
      "Ġprotect": 7823,
      "Ġnervosa": 7824,
      "Ġmicroscope": 7825,
      "ĠDiseases": 7826,
      "Ġretinopathy": 7827,
      "ĠAfrica": 7828,
      "ABG": 7829,
      "Ġfriend": 7830,
      "Ġseparate": 7831,
      "Ġfibrous": 7832,
      "ochemical": 7833,
      "Ġdemographics": 7834,
      "odiazepines": 7835,
      "wikimedia": 7836,
      "300": 7837,
      "ej": 7838,
      "lines": 7839,
      "okinase": 7840,
      "pm": 7841,
      "Î¼": 7842,
      "Ġaid": 7843,
      "eness": 7844,
      "Ġcamp": 7845,
      "icion": 7846,
      "Ġinn": 7847,
      "Ġdin": 7848,
      "Ġwent": 7849,
      "itol": 7850,
      "Ġfru": 7851,
      "ulop": 7852,
      "Ġthorough": 7853,
      "olone": 7854,
      "olithiasis": 7855,
      "osyl": 7856,
      "oskeletal": 7857,
      "Ġforce": 7858,
      "ragment": 7859,
      "Ġvac": 7860,
      "ĠWomen": 7861,
      "dilection": 7862,
      "ĠCXR": 7863,
      "ĠSur": 7864,
      "Ġstairs": 7865,
      "Ġwhom": 7866,
      "Ġmoving": 7867,
      "Ġopac": 7868,
      "ĠLib": 7869,
      "Ġcour": 7870,
      "Ġcovered": 7871,
      "Ġmaneu": 7872,
      "âĢľ": 7873,
      "index": 7874,
      "ĠGra": 7875,
      "Ġkind": 7876,
      "loph": 7877,
      "Ġlying": 7878,
      "tives": 7879,
      "Ġ71": 7880,
      "Ġ104": 7881,
      "Ġ89": 7882,
      "hesis": 7883,
      "Ġsupra": 7884,
      "Ġimmunizations": 7885,
      "Ġimmunocompromised": 7886,
      "Ġpalms": 7887,
      "ĠHyperc": 7888,
      "Ġdistant": 7889,
      "Ġthrombotic": 7890,
      "ĠComplete": 7891,
      "Ġprednisone": 7892,
      "Ġsecreted": 7893,
      "ussusception": 7894,
      "Ġpercutaneous": 7895,
      "oplasmic": 7896,
      "Ġhighest": 7897,
      "Ġsurfaces": 7898,
      "Ġprostatic": 7899,
      "amicin": 7900,
      "Ġtargeted": 7901,
      "Ġprolongation": 7902,
      "ochromic": 7903,
      "Ġforeign": 7904,
      "ĠGuillain": 7905,
      "ĠScreening": 7906,
      "Ġmargins": 7907,
      "Ġrunny": 7908,
      "Ġdependent": 7909,
      "Ġlactose": 7910,
      "Ġdonor": 7911,
      "Ġversus": 7912,
      "Ġgranules": 7913,
      "Ġmissed": 7914,
      "Ġsuspicion": 7915,
      "Ġrelaxation": 7916,
      "Ġcephalospor": 7917,
      "Ġunique": 7918,
      "Ġiodine": 7919,
      "Ġsideroblastic": 7920,
      "commons": 7921,
      "92": 7922,
      "HF": 7923,
      "Thyroid": 7924,
      "date": 7925,
      "free": 7926,
      "iqu": 7927,
      "oat": 7928,
      "Ġtun": 7929,
      "onol": 7930,
      "Ġsure": 7931,
      "Ġcranial": 7932,
      "Ġpsoriasis": 7933,
      "rose": 7934,
      "ĠTox": 7935,
      "ematous": 7936,
      "ĠPur": 7937,
      "ĠPrior": 7938,
      "ofovir": 7939,
      "ĠCBC": 7940,
      "ĠCalcium": 7941,
      "ocalcemia": 7942,
      "Ġstature": 7943,
      "ify": 7944,
      "agin": 7945,
      "Ġexpiratory": 7946,
      "Ġincision": 7947,
      "illed": 7948,
      "ĠLang": 7949,
      "ropine": 7950,
      "iciencies": 7951,
      "ogy": 7952,
      "ĠFal": 7953,
      "Ġapparent": 7954,
      "ĠUse": 7955,
      "ĠViral": 7956,
      "Ġsubunit": 7957,
      "pecific": 7958,
      "Ġphag": 7959,
      "tesy": 7960,
      "Ġinsertion": 7961,
      "efore": 7962,
      "Ġoxid": 7963,
      "Ġprogresses": 7964,
      "Ġshortly": 7965,
      "ĠComplications": 7966,
      "Ġmodifications": 7967,
      "Ġelectrop": 7968,
      "Ġpeak": 7969,
      "Ġpromote": 7970,
      "utional": 7971,
      "Ġworsens": 7972,
      "ophilus": 7973,
      "eber": 7974,
      "Ġprotection": 7975,
      "produc": 7976,
      "Ġbeneficial": 7977,
      "orphine": 7978,
      "Ġaneurysms": 7979,
      "Ġinduce": 7980,
      "osinophilia": 7981,
      "olytica": 7982,
      "Ġagonists": 7983,
      "Ġnutrition": 7984,
      "Ġnutrients": 7985,
      "Ġstimuli": 7986,
      "Ġattempt": 7987,
      "Ġepidemiological": 7988,
      "Ġanatom": 7989,
      "ĠDisorder": 7990,
      "Ġlooks": 7991,
      "Ġcofactor": 7992,
      "Ġmyxoma": 7993,
      "Ġsalivary": 7994,
      "ĠInitial": 7995,
      "Ġrigidity": 7996,
      "Ġpredominantly": 7997,
      "MoCA": 7998,
      "Ġmorphology": 7999,
      "Ġcorrelation": 8000,
      "sulfamethoxazole": 8001,
      "Ġmicroorganisms": 8002,
      "Ġcapillaries": 8003,
      "echoic": 8004,
      "Ġtrachomatis": 8005,
      "Ġincomplete": 8006,
      "hr": 8007,
      "yond": 8008,
      "onatremia": 8009,
      "tially": 8010,
      "Ġsay": 8011,
      "Ġcream": 8012,
      "Ġband": 8013,
      "Ġwidespread": 8014,
      "itant": 8015,
      "Ġfar": 8016,
      "roz": 8017,
      "roximately": 8018,
      "existing": 8019,
      "ulum": 8020,
      "usual": 8021,
      "Ġnurs": 8022,
      "ĠDec": 8023,
      "Ġvaric": 8024,
      "ĠCyc": 8025,
      "oconstr": 8026,
      "Ġstromal": 8027,
      "Ġproto": 8028,
      "rive": 8029,
      "ĠMALT": 8030,
      "Ġbloating": 8031,
      "ĠErythema": 8032,
      "Ġsphe": 8033,
      "ĠHereditary": 8034,
      "Ġpredilection": 8035,
      "ĠRest": 8036,
      "ogonad": 8037,
      "Ġunresponsive": 8038,
      "php": 8039,
      "Ġ66": 8040,
      "Ġepinephrine": 8041,
      "Ġtestes": 8042,
      "Ġcortical": 8043,
      "alsy": 8044,
      "Ġelev": 8045,
      "ĠExtra": 8046,
      "ĠChlor": 8047,
      "psycho": 8048,
      "ĠEncephal": 8049,
      "Ġdefinitive": 8050,
      "Ġvaginalis": 8051,
      "Ġovary": 8052,
      "ollusc": 8053,
      "Ġexercises": 8054,
      "ĠZika": 8055,
      "clerotic": 8056,
      "Ġinvestigation": 8057,
      "ochromatosis": 8058,
      "Ġcheckup": 8059,
      "Ġmarginal": 8060,
      "Ġinhaler": 8061,
      "lycerides": 8062,
      "ĠPresent": 8063,
      "Ġrecommendations": 8064,
      "headed": 8065,
      "Ġrhinitis": 8066,
      "olidation": 8067,
      "IIIa": 8068,
      "Ġganglion": 8069,
      "Ġsuicide": 8070,
      "Ġanomalies": 8071,
      "Ġinconsistently": 8072,
      "ĠPublic": 8073,
      "rolonged": 8074,
      "ejun": 8075,
      "onolactone": 8076,
      "58": 8077,
      "96": 8078,
      "Op": 8079,
      "aemia": 8080,
      "dimer": 8081,
      "tage": 8082,
      "where": 8083,
      "Ġtalk": 8084,
      "tia": 8085,
      "eriber": 8086,
      "orin": 8087,
      "Ġdrow": 8088,
      "omorphic": 8089,
      "ushed": 8090,
      "ĠACTH": 8091,
      "Ġgold": 8092,
      "imus": 8093,
      "ocular": 8094,
      "ocial": 8095,
      "Ġpropor": 8096,
      "Ġquanti": 8097,
      "Ġrhabdomy": 8098,
      "abs": 8099,
      "ĠIdiopathic": 8100,
      "ube": 8101,
      "ĠNL": 8102,
      "luding": 8103,
      "Ġcoup": 8104,
      "ĠGranul": 8105,
      "Ġdie": 8106,
      "Ġrepetitive": 8107,
      "Ġheme": 8108,
      "posure": 8109,
      "Ġirre": 8110,
      "ĠKer": 8111,
      "Ġpostoperative": 8112,
      "Ġcartilage": 8113,
      "Ġtraumatic": 8114,
      "Ġvaccinations": 8115,
      "Ġ2008": 8116,
      "ometry": 8117,
      "Ġosteoarthritis": 8118,
      "Ġureter": 8119,
      "Start": 8120,
      "Ġwounds": 8121,
      "radation": 8122,
      "Ġneoplasms": 8123,
      "ĠMicroscopic": 8124,
      "Ġlayers": 8125,
      "GFR": 8126,
      "ĠSuperior": 8127,
      "Ġstimulates": 8128,
      "Ġvascul": 8129,
      "Ġexaminations": 8130,
      "Ġchemicals": 8131,
      "Ġcholecystitis": 8132,
      "Ġtrimester": 8133,
      "Ġeyelid": 8134,
      "Ġstatements": 8135,
      "thrax": 8136,
      "Ġexhibit": 8137,
      "urosemide": 8138,
      "Ġcrucial": 8139,
      "Ġplacenta": 8140,
      "mega": 8141,
      "eriberi": 8142,
      "$$": 8143,
      "Mic": 8144,
      "Meas": 8145,
      "PR": 8146,
      "Sodium": 8147,
      "TI": 8148,
      "WikiDoc": 8149,
      "dis": 8150,
      "ken": 8151,
      "lactam": 8152,
      "ming": 8153,
      "ower": 8154,
      "rd": 8155,
      "rinsic": 8156,
      "sacchar": 8157,
      "inosis": 8158,
      "rey": 8159,
      "reactive": 8160,
      "Ġsitting": 8161,
      "estern": 8162,
      "Ġankles": 8163,
      "Ġanorexia": 8164,
      "Ġbound": 8165,
      "Ġbiop": 8166,
      "Ġdext": 8167,
      "Ġfragment": 8168,
      "uting": 8169,
      "Ġthiazide": 8170,
      "Infec": 8171,
      "Ġtoe": 8172,
      "ilirubin": 8173,
      "ĠAF": 8174,
      "osm": 8175,
      "osity": 8176,
      "Ġgot": 8177,
      "ĠPa": 8178,
      "oto": 8179,
      "Ġongoing": 8180,
      "Ġvar": 8181,
      "hore": 8182,
      "Ġbeyond": 8183,
      "ionine": 8184,
      "ĠEmp": 8185,
      "renocortic": 8186,
      "Ġneigh": 8187,
      "illar": 8188,
      "Ġinfect": 8189,
      "Ġunits": 8190,
      "Ġsignals": 8191,
      "ersinia": 8192,
      "Ġmetronidazole": 8193,
      "Ġrelate": 8194,
      "Ġurinalysis": 8195,
      "Ġspecimens": 8196,
      "ologically": 8197,
      "Ġesc": 8198,
      "Ġclassic": 8199,
      "urner": 8200,
      "ĠJournal": 8201,
      "Ġmeasuring": 8202,
      "Ġairways": 8203,
      "anning": 8204,
      "Ġprolactin": 8205,
      "Ġautopsy": 8206,
      "Ġ2006": 8207,
      "Alkaline": 8208,
      "Ġpercussion": 8209,
      "Ġproperties": 8210,
      "Ġmacular": 8211,
      "ĠHemat": 8212,
      "Ġnitroglycerin": 8213,
      "Ġresistant": 8214,
      "Ġborders": 8215,
      "igmented": 8216,
      "Ġbaseline": 8217,
      "Ġbronchial": 8218,
      "Ġburns": 8219,
      "uodenal": 8220,
      "Ġcostal": 8221,
      "Ġreasonable": 8222,
      "contrast": 8223,
      "Ġmediastinal": 8224,
      "Ġrestriction": 8225,
      "Ġlumps": 8226,
      "Ġsubtype": 8227,
      "Ġactually": 8228,
      "Ġodor": 8229,
      "Ġazithromycin": 8230,
      "Ġmeeting": 8231,
      "Ġalveolar": 8232,
      "Ġschist": 8233,
      "Ġumbilical": 8234,
      "Ġclosed": 8235,
      "Obtain": 8236,
      "dysplastic": 8237,
      "erhans": 8238,
      "ĠTIMI": 8239,
      "Ġdocumented": 8240,
      "ĠEntamoeba": 8241,
      "Ġintoxication": 8242,
      "ytoin": 8243,
      "Col": 8244,
      "Es": 8245,
      "Prop": 8246,
      "WS": 8247,
      "bec": 8248,
      "brain": 8249,
      "des": 8250,
      "med": 8251,
      "nex": 8252,
      "oon": 8253,
      "uity": 8254,
      "yel": 8255,
      "orus": 8256,
      "Ġbud": 8257,
      "Ġbath": 8258,
      "Ġinappropriate": 8259,
      "Ġwed": 8260,
      "Ġfast": 8261,
      "Ġfavor": 8262,
      "lysis": 8263,
      "stage": 8264,
      "lower": 8265,
      "ached": 8266,
      "ĠDVT": 8267,
      "ĠPat": 8268,
      "Ġvit": 8269,
      "Ġask": 8270,
      "ĠCough": 8271,
      "ocele": 8272,
      "ayed": 8273,
      "Ġev": 8274,
      "auses": 8275,
      "Ġlipos": 8276,
      "Ġneoplasm": 8277,
      "ĠNF": 8278,
      "ĠFe": 8279,
      "ĠFrom": 8280,
      "istal": 8281,
      "ĠGroup": 8282,
      "ificant": 8283,
      "Ġ49": 8284,
      "Ġoverload": 8285,
      "ralogy": 8286,
      "Ġseverely": 8287,
      "Ġ126": 8288,
      "athies": 8289,
      "oplasia": 8290,
      "Ġmeasles": 8291,
      "orrhagic": 8292,
      "Ġidentification": 8293,
      "Ġhydrox": 8294,
      "Ġhistolytica": 8295,
      "Alanine": 8296,
      "lessness": 8297,
      "cells": 8298,
      "Ġdermis": 8299,
      "Ġdisseminated": 8300,
      "Ġavoidance": 8301,
      "Ġurethral": 8302,
      "Ġpassive": 8303,
      "Ġdegrees": 8304,
      "ĠReview": 8305,
      "Ġfalls": 8306,
      "Ġfeelings": 8307,
      "Ġtriggers": 8308,
      "transferase": 8309,
      "orescence": 8310,
      "ĠCOPD": 8311,
      "Ġdestro": 8312,
      "ĠEpstein": 8313,
      "Ġsuccessfully": 8314,
      "Ġsituation": 8315,
      "Ġdirected": 8316,
      "ĠAutoimmune": 8317,
      "Ġdrops": 8318,
      "Ġneurotransmitter": 8319,
      "Ġtransfusions": 8320,
      "ĠInternational": 8321,
      "ĠWorld": 8322,
      "Ġlanguage": 8323,
      "Ġalleviate": 8324,
      "curid": 8325,
      "Ġcouple": 8326,
      ".)": 8327,
      "Oste": 8328,
      "Post": 8329,
      "UTC": 8330,
      "ev": 8331,
      "iella": 8332,
      "ju": 8333,
      "yt": 8334,
      "Ġtic": 8335,
      "Ġaph": 8336,
      "Ġsigmoid": 8337,
      "Ġpalsy": 8338,
      "Ġmosquito": 8339,
      "itrate": 8340,
      "omiting": 8341,
      "utin": 8342,
      "acolon": 8343,
      "ĠDen": 8344,
      "ĠTim": 8345,
      "Ġhel": 8346,
      "ĠHLA": 8347,
      "Ġ(>": 8348,
      "hoid": 8349,
      "ĠCalc": 8350,
      "ĠCystic": 8351,
      "ocentesis": 8352,
      "riosis": 8353,
      "ĠMaternal": 8354,
      "ĠMitral": 8355,
      "ĠBilateral": 8356,
      "aminase": 8357,
      "pers": 8358,
      "ĠNeph": 8359,
      "ĠFour": 8360,
      "ceral": 8361,
      "indle": 8362,
      "Ġunilateral": 8363,
      "loproliferative": 8364,
      "Ġ400": 8365,
      "venile": 8366,
      "Ġoverdose": 8367,
      "Ġparticles": 8368,
      "Ġconservative": 8369,
      "Ġmalnutrition": 8370,
      "Ġendophthalmitis": 8371,
      "Ġ86": 8372,
      "ariasis": 8373,
      "ĠExt": 8374,
      "Ġdysphagia": 8375,
      "Ġabsorb": 8376,
      "Ġlasting": 8377,
      "Ġpolycystic": 8378,
      "Ġperformance": 8379,
      "Ġgravis": 8380,
      "Ġgastritis": 8381,
      "egin": 8382,
      "Ġmention": 8383,
      "orrhage": 8384,
      "Ġ250": 8385,
      "Ġsecretions": 8386,
      "Ġcentury": 8387,
      "Ġangiogram": 8388,
      "fee": 8389,
      "gluc": 8390,
      "ĠMye": 8391,
      "Ġprostagland": 8392,
      "Streptococcus": 8393,
      "proic": 8394,
      "ĠMedications": 8395,
      "ield": 8396,
      "Ġdosage": 8397,
      "angiect": 8398,
      "ABA": 8399,
      "Ġlethargy": 8400,
      "Ġvesicles": 8401,
      "Ġcramps": 8402,
      "esterday": 8403,
      "Ġrecords": 8404,
      "Ġholosystolic": 8405,
      "Ġerror": 8406,
      "Ġrequiring": 8407,
      "Ġradical": 8408,
      "Ġtorsion": 8409,
      "ĠTrials": 8410,
      "Ġcreate": 8411,
      "nemonic": 8412,
      "ulopapular": 8413,
      "54": 8414,
      "94": 8415,
      "AV": 8416,
      "HT": 8417,
      "Meth": 8418,
      "OT": 8419,
      "Some": 8420,
      "Ur": 8421,
      "growth": 8422,
      "Ġautism": 8423,
      "ishes": 8424,
      "enectomy": 8425,
      "alking": 8426,
      "Ġpg": 8427,
      "orubicin": 8428,
      "Ġmult": 8429,
      "ĠmOsm": 8430,
      "Ġdim": 8431,
      "Ġdialysis": 8432,
      "itating": 8433,
      "Ġfell": 8434,
      "examethasone": 8435,
      "omnia": 8436,
      "uses": 8437,
      "acing": 8438,
      "Ġnet": 8439,
      "ollic": 8440,
      "urc": 8441,
      "atif": 8442,
      "stranded": 8443,
      "igure": 8444,
      "Ġtran": 8445,
      "hylp": 8446,
      "Ġasymmet": 8447,
      "ĠCABG": 8448,
      "ypro": 8449,
      "Ġproposed": 8450,
      "Ġdisor": 8451,
      "Ġevid": 8452,
      "Ġlet": 8453,
      "uptake": 8454,
      "monella": 8455,
      "ĠNational": 8456,
      "ĠOf": 8457,
      "ĠOp": 8458,
      "ĠLH": 8459,
      "ĠLoss": 8460,
      "ĠLegion": 8461,
      "luded": 8462,
      "reasing": 8463,
      "ĠRel": 8464,
      "ĠRare": 8465,
      "ĠFocal": 8466,
      "Ġarticles": 8467,
      "Ġkary": 8468,
      "Ġhyperkalemia": 8469,
      "arcoidosis": 8470,
      "Ġmeal": 8471,
      "Ġmalaria": 8472,
      "Ġcardiogenic": 8473,
      "ammag": 8474,
      "Ġabnormally": 8475,
      "lerian": 8476,
      "Ġpharyngitis": 8477,
      "ylal": 8478,
      "eff": 8479,
      "Ġappearing": 8480,
      "ĠStage": 8481,
      "ioplast": 8482,
      "tinue": 8483,
      "Ġcarefully": 8484,
      "ĠExam": 8485,
      "Ġindependent": 8486,
      "coholic": 8487,
      "Ġsimvastatin": 8488,
      "Ġthrombocyt": 8489,
      "Ġgastrin": 8490,
      "Ġamlodipine": 8491,
      "Ġcleft": 8492,
      "Ġparent": 8493,
      "Ġmalignancies": 8494,
      "rocytic": 8495,
      "Ġobserv": 8496,
      "ometrial": 8497,
      "Ġmidline": 8498,
      "ĠYour": 8499,
      "Ġsinuses": 8500,
      "Ġpubic": 8501,
      "lecting": 8502,
      "antile": 8503,
      "utrophil": 8504,
      "orbid": 8505,
      "Ġvasoconstr": 8506,
      "ĠUlcer": 8507,
      "Ġpharmacist": 8508,
      "Ġirritation": 8509,
      "Ġerythrocyte": 8510,
      "Ġampicillin": 8511,
      "Ġmatrix": 8512,
      "Ġbarium": 8513,
      "Ġeffusions": 8514,
      "Ġlobes": 8515,
      "Ġtonsils": 8516,
      "Ġterminal": 8517,
      "Ġbacilli": 8518,
      "Ġcytokines": 8519,
      "ĠGastrointestinal": 8520,
      "Ġaffinity": 8521,
      "Ġexchange": 8522,
      "Impaired": 8523,
      "Ġanticoagulant": 8524,
      "Ġgallstones": 8525,
      "ĠMycoplasma": 8526,
      "ĠDoppler": 8527,
      "Ġhemorrhoids": 8528,
      "ĠLangerhans": 8529,
      "ĠFallot": 8530,
      "ioplasty": 8531,
      "EG": 8532,
      "Multiple": 8533,
      "Positive": 8534,
      "Urinary": 8535,
      "ki": 8536,
      "mar": 8537,
      "Ġtends": 8538,
      "Ġtymp": 8539,
      "Ġathle": 8540,
      "tibular": 8541,
      "Ġpill": 8542,
      "Ġpineal": 8543,
      "oring": 8544,
      "Ġbright": 8545,
      "Ġindirect": 8546,
      "Ġmnemonic": 8547,
      "asic": 8548,
      "Ġfoss": 8549,
      "sth": 8550,
      "strophy": 8551,
      "ets": 8552,
      "Ġreverse": 8553,
      "ectin": 8554,
      "odend": 8555,
      "ternal": 8556,
      "oflu": 8557,
      "ĠWol": 8558,
      "ĠSources": 8559,
      "romas": 8560,
      "agnetic": 8561,
      "ĠMe": 8562,
      "ĠMeconium": 8563,
      "undant": 8564,
      "Ġabrup": 8565,
      "ĠIC": 8566,
      "Ġoper": 8567,
      "rapeutic": 8568,
      "ubbing": 8569,
      "Ġhypoglycemia": 8570,
      "Ġrecre": 8571,
      "Ġmedull": 8572,
      "Ġmedullary": 8573,
      "Ġunlike": 8574,
      "Ġunless": 8575,
      "Ġplus": 8576,
      "Ġheartbeat": 8577,
      "Ġinvade": 8578,
      "Ġoverlying": 8579,
      "Ġtransformation": 8580,
      "Ġparoxysmal": 8581,
      "Ġdecision": 8582,
      "Ġconsist": 8583,
      "Ġ103": 8584,
      "Ġdysuria": 8585,
      "azol": 8586,
      "oblast": 8587,
      "zyme": 8588,
      "oniaz": 8589,
      "Ġthromboemb": 8590,
      "Ġdifferences": 8591,
      "Ġsoil": 8592,
      "Ġautoantib": 8593,
      "ystemic": 8594,
      "regulation": 8595,
      "hydroxy": 8596,
      "tigmine": 8597,
      "Ġchromosomal": 8598,
      "Ġgastroenter": 8599,
      "Ġmitotic": 8600,
      "Ġcontinued": 8601,
      "ĠSTEMI": 8602,
      "ĠAssociation": 8603,
      "Ġhepatosplenomegaly": 8604,
      "Ġtechn": 8605,
      "Ġspeak": 8606,
      "Ġfungi": 8607,
      "Ġeros": 8608,
      "Ġpsychotherapy": 8609,
      "Ġirritability": 8610,
      "activated": 8611,
      "ĠSpecific": 8612,
      "ĠMicro": 8613,
      "Ġuncommon": 8614,
      "Ġshoulders": 8615,
      "Ġaware": 8616,
      "Ġepidermal": 8617,
      "Ġpsychological": 8618,
      "ĠHypertension": 8619,
      "Ġpruritus": 8620,
      "Ġhypoxia": 8621,
      "Ġcocci": 8622,
      "Ġinserted": 8623,
      "iscontinue": 8624,
      "Ġtobacco": 8625,
      "Ġcourtesy": 8626,
      "olluscum": 8627,
      "23": 8628,
      "48": 8629,
      "800": 8630,
      "App": 8631,
      "Aortic": 8632,
      "CS": 8633,
      "IU": 8634,
      "MD": 8635,
      "Ret": 8636,
      "VID": 8637,
      "aundice": 8638,
      "oacid": 8639,
      "inous": 8640,
      "aline": 8641,
      "alazine": 8642,
      "Ġciliary": 8643,
      "Ġbring": 8644,
      "arning": 8645,
      "Ġmist": 8646,
      "ashes": 8647,
      "Ġhor": 8648,
      "Ġnons": 8649,
      "idol": 8650,
      "ĠAmp": 8651,
      "uritic": 8652,
      "ĠTr": 8653,
      "iative": 8654,
      "eler": 8655,
      "Ġgut": 8656,
      "Ġgamma": 8657,
      "rescend": 8658,
      "ĠPoor": 8659,
      "Ġonto": 8660,
      "structions": 8661,
      "dibular": 8662,
      "ĠCho": 8663,
      "ticaria": 8664,
      "urea": 8665,
      "Ġquite": 8666,
      "Ġevol": 8667,
      "see": 8668,
      "riend": 8669,
      "ĠMod": 8670,
      "ĠMob": 8671,
      "ĠEd": 8672,
      "ĠEr": 8673,
      "Ġatria": 8674,
      "ĠNot": 8675,
      "child": 8676,
      "apan": 8677,
      "ĠFat": 8678,
      "ipine": 8679,
      "hens": 8680,
      "ventil": 8681,
      "Ġbuttoc": 8682,
      "arest": 8683,
      "Ġ69": 8684,
      "raline": 8685,
      "ancing": 8686,
      "Ġjejun": 8687,
      "rolithiasis": 8688,
      "ovial": 8689,
      "ĠStool": 8690,
      "arria": 8691,
      "Ġnodal": 8692,
      "Ġwhee": 8693,
      "Ġ138": 8694,
      "ucleotide": 8695,
      "Ġhyst": 8696,
      "Ġpolym": 8697,
      "Ġeduc": 8698,
      "Ġtubules": 8699,
      "Ġbreastfeeding": 8700,
      "Ġ180": 8701,
      "ĠAspirin": 8702,
      "isteria": 8703,
      "adequate": 8704,
      "Ġ2009": 8705,
      "Ġlymphoid": 8706,
      "Ġstatins": 8707,
      "arinic": 8708,
      "Ġnephrotic": 8709,
      "Hypert": 8710,
      "small": 8711,
      "ĠDiarrhea": 8712,
      "ĠLymphocy": 8713,
      "Ġbecoming": 8714,
      "odermal": 8715,
      "Ġballoon": 8716,
      "Neuro": 8717,
      "arseness": 8718,
      "astroenter": 8719,
      "ĠEscherichia": 8720,
      "ĠCMR": 8721,
      "ĠLymphadenopathy": 8722,
      "nisolone": 8723,
      "Ġtertiary": 8724,
      "Ġappendicitis": 8725,
      "respond": 8726,
      "Ġbeginning": 8727,
      "Ġexpressed": 8728,
      "Ġhernias": 8729,
      "Ġversion": 8730,
      "menopausal": 8731,
      "Ġganglia": 8732,
      "Ġlaceration": 8733,
      "Erythrocyte": 8734,
      "Ġprotease": 8735,
      "ĠSigns": 8736,
      "differenti": 8737,
      "Ġmanifestation": 8738,
      "Ġmorbidity": 8739,
      "Ġscrotum": 8740,
      "Ġhyperglyc": 8741,
      "Î¼L": 8742,
      "horetic": 8743,
      "Ġthrombocytopenic": 8744,
      "sthoracic": 8745,
      "oniazid": 8746,
      "rescendo": 8747,
      "87": 8748,
      "Chest": 8749,
      "HIV": 8750,
      "MB": 8751,
      "MR": 8752,
      "back": 8753,
      "friend": 8754,
      "ii": 8755,
      "iol": 8756,
      "nic": 8757,
      "nRH": 8758,
      "oul": 8759,
      "ply": 8760,
      "rary": 8761,
      "var": 8762,
      "Ġ:": 8763,
      "inate": 8764,
      "Ġoil": 8765,
      "Ġomeprazole": 8766,
      "Ġsial": 8767,
      "atch": 8768,
      "Ġbiological": 8769,
      "asms": 8770,
      "Ġways": 8771,
      "Ġfiltration": 8772,
      "leg": 8773,
      "ombin": 8774,
      "Ġthumb": 8775,
      "Ins": 8776,
      "Ġrevascularization": 8777,
      "uron": 8778,
      "aments": 8779,
      "Ġforward": 8780,
      "ĠHen": 8781,
      "ĠHDL": 8782,
      "ĠHuman": 8783,
      "Ġground": 8784,
      "raine": 8785,
      "ĠCat": 8786,
      "ĠColl": 8787,
      "ĠSmoking": 8788,
      "Ġprognostic": 8789,
      "ĠBab": 8790,
      "Ġperox": 8791,
      "Ġnevus": 8792,
      "Ġspaces": 8793,
      "ubella": 8794,
      "ĠNorm": 8795,
      "ĠLess": 8796,
      "Ġherself": 8797,
      "Ġadnex": 8798,
      "ĠRay": 8799,
      "Ġcoarse": 8800,
      "Ġintram": 8801,
      "ĠFood": 8802,
      "ĠFSH": 8803,
      "Ġscans": 8804,
      "Ġantiviral": 8805,
      "Ġclar": 8806,
      "Ġpool": 8807,
      "arged": 8808,
      "Ġregimens": 8809,
      "iotics": 8810,
      "odystrophy": 8811,
      "Ġ600": 8812,
      "ĠVen": 8813,
      "Ġinvoluntary": 8814,
      "Ġdeficient": 8815,
      "Ġrelieved": 8816,
      "Ġendorses": 8817,
      "ylate": 8818,
      "Ġnonp": 8819,
      "Ġmanaging": 8820,
      "icken": 8821,
      "Ġdetails": 8822,
      "Ġwhereas": 8823,
      "ĠAlcohol": 8824,
      "Ġcalculated": 8825,
      "ĠJapan": 8826,
      "Ġneuroblastoma": 8827,
      "Ġimproving": 8828,
      "Ġinitiation": 8829,
      "Ġintrauterine": 8830,
      "embranous": 8831,
      "ething": 8832,
      "ĠYersinia": 8833,
      "adily": 8834,
      "Ġvertebral": 8835,
      "utrophils": 8836,
      "Ġsteroid": 8837,
      "Ġdegradation": 8838,
      "Ġsurrounded": 8839,
      "appearing": 8840,
      "Ġsegments": 8841,
      "repon": 8842,
      "Ġmigraine": 8843,
      "Reassurance": 8844,
      "Ġdiphther": 8845,
      "ocorticoid": 8846,
      "Ġdetermining": 8847,
      "Ġaccounts": 8848,
      "Ġepidermis": 8849,
      "Ġduodenal": 8850,
      "Ġfrontal": 8851,
      "Ġacetylcholine": 8852,
      "Ġmegacolon": 8853,
      "fibromatosis": 8854,
      "Ġclaim": 8855,
      "arteritis": 8856,
      "Ġservices": 8857,
      "\"?": 8858,
      "33": 8859,
      "AK": 8860,
      "Cor": 8861,
      "CSF": 8862,
      "EF": 8863,
      "Failure": 8864,
      "Her": 8865,
      "OPA": 8866,
      "WH": 8867,
      "ctor": 8868,
      "controlled": 8869,
      "nel": 8870,
      "varian": 8871,
      "inic": 8872,
      "intig": 8873,
      "het": 8874,
      "isions": 8875,
      "Ġpending": 8876,
      "Ġmach": 8877,
      "anosis": 8878,
      "itour": 8879,
      "Ġfish": 8880,
      "ulance": 8881,
      "uloskeletal": 8882,
      "omyc": 8883,
      "acillin": 8884,
      "Ġreuptake": 8885,
      "osition": 8886,
      "ĠTer": 8887,
      "ĠTachycardia": 8888,
      "ĠToxic": 8889,
      "ĠTrich": 8890,
      "eled": 8891,
      "elangiect": 8892,
      "ams": 8893,
      "ofloxacin": 8894,
      "Ġvib": 8895,
      "Ġcond": 8896,
      "ĠCef": 8897,
      "Ġorally": 8898,
      "Ġorbital": 8899,
      "Ġstroma": 8900,
      "ugg": 8901,
      "ĠER": 8902,
      "ĠLip": 8903,
      "ropenia": 8904,
      "Ġnovel": 8905,
      "aphyl": 8906,
      "Ġfeb": 8907,
      "Ġmedic": 8908,
      "ricane": 8909,
      "arche": 8910,
      "rosy": 8911,
      "Ġtransition": 8912,
      "Ġsubarachnoid": 8913,
      "Ġ108": 8914,
      "poses": 8915,
      "effective": 8916,
      "Ġnecrotizing": 8917,
      "Ġdescription": 8918,
      "ĠStroke": 8919,
      "Ġchanged": 8920,
      "Ġradiotherapy": 8921,
      "Ġpregnancies": 8922,
      "Ġvector": 8923,
      "ĠComp": 8924,
      "ĠAsia": 8925,
      "Ġproviding": 8926,
      "Ġsuspect": 8927,
      "osomiasis": 8928,
      "avian": 8929,
      "Ġhemorrhages": 8930,
      "ĠIgE": 8931,
      "Ġetc": 8932,
      "Ġthickened": 8933,
      "Staphylococcus": 8934,
      "Ġteac": 8935,
      "Ġmarker": 8936,
      "Aspartate": 8937,
      "ĠIschemic": 8938,
      "Ġpredictive": 8939,
      "Ġphotograph": 8940,
      "Ġrunning": 8941,
      "ĠImpairment": 8942,
      "Ġdirection": 8943,
      "Ġconstriction": 8944,
      "Ġpetechiae": 8945,
      "Ġtolerance": 8946,
      "Ġchorionic": 8947,
      "Ġimbalances": 8948,
      "ĠSouth": 8949,
      "Ġambulance": 8950,
      "ĠClostridium": 8951,
      "Ġdiaphoretic": 8952,
      "Ġhistiocytosis": 8953,
      "Decrease": 8954,
      "Ġtemporary": 8955,
      "turnal": 8956,
      "Ġicterus": 8957,
      "Ġadolescent": 8958,
      "itourinary": 8959,
      "46": 8960,
      "62": 8961,
      "Ald": 8962,
      "AMP": 8963,
      "Dis": 8964,
      "Dise": 8965,
      "ECG": 8966,
      "GA": 8967,
      "LQ": 8968,
      "PF": 8969,
      "PCR": 8970,
      "Posterior": 8971,
      "UQ": 8972,
      "cont": 8973,
      "density": 8974,
      "hCG": 8975,
      "sies": 8976,
      "td": 8977,
      "Ã¼": 8978,
      "Ġtip": 8979,
      "also": 8980,
      "alpha": 8981,
      "Ġpolic": 8982,
      "Ġanthrax": 8983,
      "aser": 8984,
      "itonin": 8985,
      "itched": 8986,
      "Ġfear": 8987,
      "Ġthrive": 8988,
      "Intra": 8989,
      "ĠTen": 8990,
      "Ġled": 8991,
      "ems": 8992,
      "ĠPD": 8993,
      "ĠCAD": 8994,
      "ĠCerebral": 8995,
      "ĠSLE": 8996,
      "ocys": 8997,
      "ells": 8998,
      "Ġerec": 8999,
      "riol": 9000,
      "ĠMD": 9001,
      "Ġacuity": 9002,
      "Ġitchy": 9003,
      "Ġload": 9004,
      "ĠRR": 9005,
      "ropoi": 9006,
      "ogastric": 9007,
      "Ġintroduc": 9008,
      "oryne": 9009,
      "aptic": 9010,
      "Ġphysicians": 9011,
      "ĠGal": 9012,
      "Ġscrat": 9013,
      "Ġunusual": 9014,
      "Ġoccult": 9015,
      "ĠUni": 9016,
      "ĠUrinary": 9017,
      "ĠVascular": 9018,
      "Ġunderstanding": 9019,
      "rimeth": 9020,
      "Ġrespiration": 9021,
      "Ġconsolidation": 9022,
      "Ġmalform": 9023,
      "unctional": 9024,
      "ostomy": 9025,
      "Ġ73": 9026,
      "Ġjer": 9027,
      "Ġforming": 9028,
      "yline": 9029,
      "Ġresulted": 9030,
      "Ġabsolute": 9031,
      "lectomy": 9032,
      "Ġpersist": 9033,
      "Ġleukocytosis": 9034,
      "Anterior": 9035,
      "ĠAdminister": 9036,
      "Ġvomited": 9037,
      "afness": 9038,
      "ĠLevel": 9039,
      "receptor": 9040,
      "Administration": 9041,
      "Ġsinusitis": 9042,
      "Ġsalt": 9043,
      "Ġassessed": 9044,
      "antitrypsin": 9045,
      "Ġvera": 9046,
      "Ġpapules": 9047,
      "Ġcrypt": 9048,
      "Ġrecover": 9049,
      "Ġmesothelioma": 9050,
      "Ġpyogenes": 9051,
[...]
